/**
  ******************************************************************************
  * @file    cnn_data_params.c
  * @author  AST Embedded Analytics Research Platform
  * @date    2025-07-05T01:44:53+0800
  * @brief   AI Tool Automatic Code Generator for Embedded NN computing
  ******************************************************************************
  * Copyright (c) 2025 STMicroelectronics.
  * All rights reserved.
  *
  * This software is licensed under terms that can be found in the LICENSE file
  * in the root directory of this software component.
  * If no LICENSE file comes with this software, it is provided AS-IS.
  ******************************************************************************
  */

#include "cnn_data_params.h"


/**  Activations Section  ****************************************************/
ai_handle g_cnn_activations_table[1 + 2] = {
  AI_HANDLE_PTR(AI_MAGIC_MARKER),
  AI_HANDLE_PTR(NULL),
  AI_HANDLE_PTR(AI_MAGIC_MARKER),
};




/**  Weights Section  ********************************************************/
AI_ALIGNED(32)
const ai_u64 s_cnn_weights_array_u64[20233] = {
  0xbe79bd263e898d30U, 0xbd8e6094be57c48aU, 0xbb9c8800be5b334cU, 0xbe12474fbe5f0885U,
  0x3e4135b6be37bf2cU, 0xbcd460e6bd379399U, 0x3e2703463d335ffaU, 0xbe41f3893e507410U,
  0x3c9cf9873c880623U, 0xbe6961463dee9d7cU, 0x3d69cdc73e3497beU, 0x3e6f4e143d3fead3U,
  0xbe25108fbe5ca549U, 0xbda399c4be450b9dU, 0xba4ab76a3e76e3f8U, 0x3bc7e10f3e47b57bU,
  0x3e698ec5bd6559e3U, 0x3e2adc54be8c5dc3U, 0x3e89e463bd91841cU, 0x3e4f9b3abd69e216U,
  0x3e4b1e553e41f523U, 0xbe278c0dbe532f33U, 0xbe2ae25abdb69581U, 0xbd4036eb3dd7974bU,
  0x3e475f4f3d9cda3dU, 0x3e484beb3e72eaedU, 0xbc5a6a9c3e59b228U, 0x3e0c772b3c454158U,
  0x3e804cabbe368422U, 0xbdaf834bbe163390U, 0xbe6b2f17be15e8f1U, 0x3e11f8d73e3f6b42U,
  0xbe29a8ca3e5b4059U, 0xbdaa76033e36ba54U, 0x3ce3bd99be34c041U, 0x3e0471e53d8155aaU,
  0xbe351c5700000000U, 0xbe3c1b9abc05f6c4U, 0xbe39389ebe461f20U, 0xbe4137f13e2e2d80U,
  0x3df6ec88bd9bab61U, 0x3d10ef02bb2bc5efU, 0x3d36824e3e04db17U, 0x3d210990bdf99b9fU,
  0x3dd40853bdc69cdcU, 0xbd31241ebcd6b76bU, 0x3c164d313e0f9776U, 0xbd80d473bd8e3feaU,
  0xbd1bab613d3be07dU, 0x3d90ef023e1a53d5U, 0xbe12468ebe0a3946U, 0x3d939e193d718e58U,
  0xbc56b76bbdc3edc5U, 0xbddc159abe0632a3U, 0xbe08e1babd90ef02U, 0xbd76ec88bbabc5efU,
  0xbd66d1f9be1d02ecU, 0x3c6c3029bcabc5efU, 0xbdf99b9f3c8b90d2U, 0xbdf43d703dae7507U,
  0xbdbe8f95bd51593bU, 0x3de981113e04db17U, 0xbc164d313d0632a3U, 0xbe2916d7bcc13eadU,
  0x3dd96682bdbbe07dU, 0xbca109903e17a4bdU, 0xbdd40853be1fb204U, 0xbe1a53d5bdf99b9fU,
  0x3df18e58be2a6e63U, 0x3e0ce85e3cb6824eU, 0xbd469cdc3d88e1baU, 0x3e2667c0bddec4b2U,
  0xbb2bc5ef3dc69cdcU, 0x3c413eadbdec3029U, 0xbdf18e583e139e19U, 0xbd36824ebde98111U,
  0x3d9f16f3be033fbbU, 0x3c3ee856be049320U, 0xbe1f16f33da1bdbbU, 0x3d6ea26c3e0ddaddU,
  0x3d9c702a3debfba4U, 0xbdaeffa53da46483U, 0xbcfe8b1ebe206a57U, 0xbe1dc38f3d793d8dU,
  0x3da46483bc89e0b0U, 0xbd8f2e41bd97229aU, 0x3d2effa5be25b7e8U, 0xbdb1a66dbdc98378U,
  0x3c6954dcbe1f16f3U, 0x3d4435e73daeffa5U, 0xbe25b7e83c9f16f3U, 0xbce954dcbd6ea26cU,
  0xbe0739e8be285eb0U, 0x3d596c2abde16083U, 0xbe25b7e8bda70b4cU, 0xbdd177d1be1f16f3U,
  0x3dfbe456bdf93d8dU, 0xbdebfba43da46483U, 0xbbfe8b1e00000000U, 0xbe1c702abddeb9baU,
  0xbd1f16f3be1875feU, 0xbdc98378bdd41e99U, 0x3d29b2143e09e0b0U, 0x3d6ea26c3e13286dU,
  0xbd049320bd049320U, 0x3d29b214bde16083U, 0xbe11d5093d9f16f3U, 0xbe2464833e0c8779U,
  0x3dcc2a40be049320U, 0x3cfe8b1e3d6954dcU, 0xbd81ec57bd9f16f3U, 0xbd91d5093e01ec57U,
  0xbc2be9a43e2a91d1U, 0x3dd434663dbeb732U, 0xbdb148f1bdb148f1U, 0x3e2282dd3d7c7f29U,
  0x3dcc25733db957e5U, 0x3c166c70bcc166d8U, 0xbca12b0a3d80ef3bU, 0xbe1d2390be0badd5U,
  0x3da68a573ce1a2a7U, 0x3d7c7f293d8badd5U, 0x3cc166d8bc6c6142U, 0x3e1d2390bdb957e5U,
  0xbccc2573be15149cU, 0xbddc435a3e2282ddU, 0xbe0a56023e064e88U, 0xbd88fe2fbd991c16U,
  0xbda939fd3d9e7b63U, 0x3dabe9a4bd46c626U, 0xbccc2573be1a73e9U, 0xbd6c6142bd9bcbbdU,
  0xbc966c703dfc7f29U, 0xbdd184c0bd4166d8U, 0x3d8e5d7c3ccc2573U, 0x3e00ef3b3d771fdcU,
  0xbe15149c3dd184c0U, 0x3e2282ddbe00ef3bU, 0xbe1d23903dcc2573U, 0xbd4c25733cd6e40dU,
  0xbe110d223b80ef3bU, 0x3e07a65bbd771fdcU, 0xbd71c08f3dabe9a4U, 0xbdc166d8be1e7b63U,
  0xbcf71fdcbe23dab0U, 0xbe02470ebdb3f898U, 0xbcec61423dd43466U, 0x3d771fdc3de701f4U,
  0xbe2937293ddcd72cU, 0xbe0b19d13ce571d8U, 0xbdac1562bd2c1562U, 0x3be571d83d2c1562U,
  0xbd9801d23d6571d8U, 0x3e055d5fbe1ae00bU, 0x3d86cc7bbe1f2d61U, 0xbd43072a3d43072aU,
  0xbe1801d23d59f8f3U, 0xbcce800f3deb2e4aU, 0xbda37ab63d9ae00bU, 0x3e1c4f28bd543c81U,
  0x3e0110093df6a72eU, 0x3df6a72e3e2aa645U, 0x3de2939ebe1dbe44U, 0x3d1ae00b3d31d1d4U,
  0x3d83ee42bc952399U, 0xbe2937293dfc63a0U, 0xbe13b47cbd5fb565U, 0x3e1c4f28be361f29U,
  0xbd9801d2be10d643U, 0x3e152399be237ab6U, 0x3df0eabcbc6571d8U, 0xbe3062b7bd8c88eeU,
  0xbe03ee42bd8f6727U, 0xbcc3072a3df98567U, 0xbd70eabc3ab78e46U, 0x3db1d1d4bdc028f1U,
  0x3d5fb565bdb78e46U, 0xbc7c63a0bdcba1d6U, 0xbd543c813d209c7dU, 0x3be571d83ddfb565U,
  0x3da09c7d3e10d643U, 0x3e209c7d3d8c88eeU, 0x3cce800fbe1dbe44U, 0xbbb78e46be209c7dU,
  0xbdce0ae63d0e192cU, 0xbdd525c1bdce0ae6U, 0xbe2c4b523dce0ae6U, 0xbcd525c13d1c4ee3U,
  0xbd78ac0c3dea7655U, 0x3baa849b3d319f77U, 0xbe1534073d3fd52eU, 0xbe2a849b3d8a8bbeU,
  0xbde6e8e7bd7fc6e8U, 0xbe1534073e1fdc51U, 0xbd8a8bbe3e08c507U, 0xbdb52ce4be58b32fU,
  0x3c9c4ee33e0e192cU, 0x3de35b793d7fc6e8U, 0x3e1e159a3d8e192cU, 0xbe253076bd3fd52eU,
  0xbdf19131bd91a69aU, 0x3d153407bdbc47c0U, 0xbc8e192c3e136d50U, 0x3ddc409dbe1e159aU,
  0x3e01aa2b3d5525c1U, 0x3d86fe50bdae1209U, 0xbd9c4ee33d8a8bbeU, 0xbdbc47c03d4e0ae6U,
  0xbd91a69a3de6e8e7U, 0x3cd525c1bdd19854U, 0x3de35b79bd5c409dU, 0xbda6f72dbd9c4ee3U,
  0x3da6f72dbde35b79U, 0x3d7fc6e83de6e8e7U, 0x3c9c4ee33e0e192cU, 0x3e21a308be6194c2U,
  0x3d153407bdbc47c0U, 0x3e21a3083d319f77U, 0x3dce0ae63de35b79U, 0xbdce0ae6bd8e192cU,
  0x3d43d365U, 0xbcd2e3a73dad3b00U, 0x3e4b5b863eb0ff11U, 0x3e4f1f97bd8f1a7bU,
  0x3dc3d365be12de8bU, 0x3e2d3b003c34c322U, 0x3e400f543ead3b00U, 0x3e71042dbd800a38U,
  0x3e0f1a7bbe25b2dfU, 0x3e8b566abd71042dU, 0x3e697c0c3eef2225U, 0x3e0f1a7bbe4b5b86U,
  0x3e74c83e3cf1042dU, 0x3dad3b00be697c0cU, 0x3e5e2fd93ec9797eU, 0xbd8f1a7bbe4f1f97U,
  0x3dc3d3653d52e3a7U, 0x3df88c4ebd879259U, 0x3e697c0c3e71042dU, 0x3d43d365be34c322U,
  0x3e21eece3e1a66adU, 0xbb71042dbd800a38U, 0x3e21eece3e897462U, 0x3cd2e3a7be0f1a7bU,
  0x3e43d365bd61f3eaU, 0x3e0b566abe34c322U, 0xbdd2e3a7be0f1a7bU, 0xbc34c322be21eeceU,
  0x3dc3d3653d25b2dfU, 0x3e4f1f973d96a29cU, 0xbc96a29cbe2976f0U, 0x3b71042dbc34c322U,
  0x3e12de8b3dda6bc9U, 0x3e0b566abd079259U, 0x3dbc4b43be1a66adU, 0xbcf1042dbe400f54U,
  0x3db33c6dbddb10f7U, 0xbcac99013dff93cbU, 0x3d6857d0bdd7bf41U, 0x3c1f5228be120b50U,
  0xbe120b503db68e23U, 0x3dd46d8bbe0eb999U, 0xbdfc4215bd39dfdaU, 0xbdafeab73dafeab7U,
  0xbc39dfda3d0b67e3U, 0xbcb9dfdabc546d8bU, 0xbe155d063dac9901U, 0x3c6efb3cbe52c4b0U,
  0xbd955d063e106274U, 0x3b9f5228bdc3d4fcU, 0xbce1b4643d1f5228U, 0xbd333c6dbe3eda6bU,
  0xbd88162d3e04c477U, 0x3c04c4773d2c9901U, 0x3deba9863dc3d4fcU, 0xbcd46d8b3d8b67e3U,
  0x3dbd31903d18aebcU, 0x3e1705e1bde5061aU, 0x3cd46d8bbdc3d4fcU, 0xbd955d06bdf24cf3U,
  0x3dd46d8b3da9474bU, 0xbd759ea9bd955d06U, 0x3e120b50bde5061aU, 0x3d6857d03ddb10f7U,
  0xbd4dca1fbe20fb03U, 0xbd546d8bbe04c477U, 0x3ad46d8bbe25f595U, 0x3c6efb3c3d18aebcU,
  0x3e031b9c3dafeab7U, 0x3d7c4215bdb9dfdaU, 0xbde1b4643dafeab7U, 0xbdc3d4fc3cfc4215U,
  0x3e0bbc363bc545f2U, 0x3dc545f2bce626f0U, 0x3df6976f3d2464f5U, 0x3d5deeb1bb8383f7U,
  0x3e09ae27be1e3ac5U, 0x3dc962123e2048d5U, 0x3dea43103e827cefU, 0xbdf27b4fbe09ae27U,
  0xbd93f4763e07a017U, 0xbd6e5f30be160286U, 0x3dea43103e6626f0U, 0x3db0b9543d2c9d34U,
  0x3d5deeb13d2464f5U, 0xbe13f476bd3d0db3U, 0x3da048d53e3d0db3U, 0xbe2256e5be36e383U,
  0xbda464f5bb8383f7U, 0x3e2464f5bda88114U, 0x3e1e3ac53e1c2cb5U, 0xbdb8f193be0bbc36U,
  0xbe0dca463e059207U, 0xbd4d7e323e1e3ac5U, 0x3de20ad13cf6976fU, 0xbdddeeb1bdddeeb1U,
  0x3d9810963e11e666U, 0x3e2c9d343d2464f5U, 0x3e1a1ea53c8383f7U, 0xbdc129d3be13f476U,
  0xbdb8f1933e267305U, 0x3e2a8f243de20ad1U, 0x0U, 0xbc0383f7be620ad1U,
  0xbd1c2cb5bc93f476U, 0xbd9c2cb53d6626f0U, 0x3d8383f7bd7ecfafU, 0x3e1a1ea5be38f193U,
  0x3dd7e6b1bd21468aU, 0x3e1591f0bdea1c13U, 0x3ca67a5d3e1c12b7U, 0x3ba67a5d3aa67a5dU,
  0xbd11ab113d91ab11U, 0xbc3b49a93e1d5facU, 0xbd554cc73d21468aU, 0x3cb0e2033e05f677U,
  0x3d6f4fe6bdd7e6b1U, 0xbd020f99bd7eeb5eU, 0xbc267a5d3d16dee4U, 0x3d3b49a93dd018f4U,
  0xbdb37becbd1c12b7U, 0x3d91ab113d5a809aU, 0xbe04a9823d5018f4U, 0x3d5fb46dbda1468aU,
  0xbdfc51753d407d7cU, 0x3d89dd55bda1468aU, 0xbddfb46dbdc5b14eU, 0xbd6a1c13bd6f4fe6U,
  0xbda1468abd45b14eU, 0x3d6a1c133decb5fcU, 0xbde24e563ce4e840U, 0x3dbde392bc87436cU,
  0xbe1ac5c2bd4ae521U, 0x3c79b78cbdd2b2deU, 0xbdb8afbf3e11ab11U, 0x3dae4819bd3b49a9U,
  0x3cb0e2033b79b78cU, 0xbd9eaca1bd820f99U, 0xbdf483b9bc11ab11U, 0x3d30e203bbd018f4U,
  0x3e04a9823dcae521U, 0xbe035c8d3d9eaca1U, 0xbe252d68bd407d7cU, 0xbd30e203bd0c773eU,
  0xbd98e75cbd062048U, 0xbd90db2ebdbe7584U, 0xbd9e44cf3d4681b2U, 0xbe1e44cf3db66957U,
  0x3ce154f33d76cac1U, 0x3bd69a0c3df9797bU, 0xbcec0fdabdd948c6U, 0x3ce154f33d6c0fdaU,
  0x3c80c2d4bbabae70U, 0x3df16d4e3e1389e8U, 0xbdbbc6ca3dbbc6caU, 0xbcf6cac1be1638a2U,
  0x3d0b7dbb3e10db2eU, 0x3e0f83d23e2a5713U, 0x3db10be4be18e75cU, 0x3d66b266bdd13c98U,
  0xbbabae703c569a0cU, 0x3c9638a23df41c07U, 0xbdf16d4e3e1638a2U, 0xbdbe7584bcb66957U,
  0x3e1e44cfbdec0fdaU, 0xbd2bae70bdb91811U, 0x3dae5d2a3d8b7dbbU, 0xbca0f389bdec0fdaU,
  0xbd569a0c3e1389e8U, 0x3d7c28343b80c2d4U, 0xbd0b7dbbbd366957U, 0xbdb91811bdb91811U,
  0x3e2a5713bdc3d2f8U, 0xbd9389e83d366957U, 0xbe224ae6be1b9616U, 0x3e2650fcbde154f3U,
  0xbccbdf253dfc2834U, 0xbe0b7dbbbd20f389U, 0xbdd3eb523e14e145U, 0xbd0b7dbb3d90db2eU,
  0xbe12ec4d3df38c51U, 0x3d296cbe3d43e5bcU, 0x3dd3c7eebe1ed5f2U, 0x3e16e4d93d9ed5f2U,
  0x3d591353be085581U, 0x3db4038abd68f585U, 0x3d493122U, 0xbe2819e5baa96cbeU,
  0x3e0702a7bdd91353U, 0xbd4e7c88bdd3c7eeU, 0xbdf38c513bd3c7eeU, 0xbcc931223e2028ccU,
  0x3ce8f5853e22ce7fU, 0xbba96cbebddbb906U, 0xbe10469a3d34038aU, 0x3d09a85a3c53c7eeU,
  0x3ba96cbe3da17ba5U, 0x3d8702a73dd3c7eeU, 0xbc7e231dbd6e40ebU, 0x3dbe9a56bdce7c88U,
  0x3d143f26be22ce7fU, 0xbbfe231dbe119973U, 0x3d143f263e045cf4U, 0x3d78d7b7be257432U,
  0xbd43e5bc3c53c7eeU, 0x3d9ed5f2be1c303fU, 0xbe1592003dce7c88U, 0x3d8c4e0d3dbe9a56U,
  0x3dc68b6fbda17ba5U, 0x3db94ef03de1046cU, 0xbca96cbebd78d7b7U, 0x3cf38c51bdd66da0U,
  0xbb296cbebda17ba5U, 0x3d8702a7bd09a85aU, 0xbe198a8cbdf0e69eU, 0xbdc931223e0c4e0dU,
  0x3d09fe963dcb8ab6U, 0x3e129e7fbdcefde0U, 0xbdcb8ab6bda224bdU, 0xbd3a4ae4bd945814U,
  0xbdb6d7b93e27517cU, 0x3e1b3e683e0f2b55U, 0x3df17d86bde3b0ddU, 0xbd9b3e68bc89fe96U,
  0xbd17cb3ebdc4a462U, 0x3dd5e4353daff165U, 0x3d17cb3ebe2c7e3bU, 0xbe1eb192be55e435U,
  0x3d0318413dc8178cU, 0x3d3a4ae4bdc8178cU, 0x3e1611a93da90b11U, 0x3dba4ae43d9b3e68U,
  0xbda597e73d7f4a2eU, 0xbd9b3e68bdb3648fU, 0xbd7863da3ddcca89U, 0x3de03db3be5b10f4U,
  0xbe2224bd3df4f0b0U, 0x3e0d71c0be206b28U, 0xbc89fe96bdf17d86U, 0xbd17cb3ebe50b776U,
  0xbda597e73cea9732U, 0xbd5cca89bda597e7U, 0xbd868b6bbdea9732U, 0x3e0d71c03d09fe96U,
  0xbdaff1653e068b6bU, 0x3d8d71c03dff4a2eU, 0x3d6a9732bd9eb192U, 0xbe04d1d6bdfbd704U,
  0xbdcefde0bd7f4a2eU, 0x3d8318413d8d71c0U, 0xbe1984d33d831841U, 0xbd1eb192bd1eb192U,
  0x3e2b1eb6bda10dd8U, 0x3e36dd0d3e18aa75U, 0x3d13a2063df194c4U, 0xbd56bd203d210dd8U,
  0x3d352f93bd7194c4U, 0x3e338219bd500737U, 0x3d904712bb56bd20U, 0x3e49514ebdc29b65U,
  0xbc210dd83cf194c4U, 0x3e429b653e1c0569U, 0x3e51b4b13e550fa6U, 0x3e388a88be22bb52U,
  0x3e31d49ebd9a57efU, 0x3d27c3c13cbbe57cU, 0x3d5d7309bba10dd8U, 0x3ad6bd20be550fa6U,
  0xbd49514e3e29713bU, 0x3df4efb83d2e79aaU, 0xbd8991283e338219U, 0x3da7c3c1bcbbe57cU,
  0x3dbf40703d352f93U, 0x3e2468cc3dd3622cU, 0xbce428f23df84aadU, 0x3e36dd0dbdf84aadU,
  0xbd6428f2bda468ccU, 0x3e3027243ce428f2U, 0x3e104712be012dc5U, 0xbd5d73093ba10dd8U,
  0xbe0e9997be1a57efU, 0x3c93a206bca10dd8U, 0x3e0e9997be063634U, 0xbd210dd8bde0cdfeU,
  0x3de0cdfebdf4efb8U, 0xbd8cec1dbe388a88U, 0xbd93a206be27c3c1U, 0x3cf194c43d56bd20U,
  0x3e385674bdbeb1b5U, 0x3e5b4c5dbd64d540U, 0x3c988e2b3e385674U, 0x3e188e2bbd8bd7a7U,
  0x3df18bc43d857c65U, 0x3e64d5403df18bc4U, 0x3bcb68393ea8724fU, 0x3e3b8415be64d540U,
  0xbd857c653e024ec5U, 0x3e5b4c5dbdeb3082U, 0x3deb30823e9ee96dU, 0x3e22170dbe385674U,
  0x3e0bd7a7bd581ebdU, 0x3e1bbbcc3e08aa06U, 0x3db1fb323e385674U, 0x3bcb68393c4b6839U,
  0x3d718bc4bde4d540U, 0x3d64d5403d0bd7a7U, 0x3d188e2b3e83e595U, 0xbd4b6839be385674U,
  0xbc988e2b3e0f0548U, 0xbcfe4247bdf7e705U, 0xbdf7e7053ec9d169U, 0x3d9ee96dbe3b8415U,
  0x3da544ae3e0f0548U, 0x3df18bc43dab9ff0U, 0xbc7e4247be15608aU, 0x3e2b9ff0be54f11cU,
  0xbd4b6839bd581ebdU, 0x3e31fb32bdab9ff0U, 0xbd4b68393c188e2bU, 0xbc7e4247be77e705U,
  0x3d9232e93ccb6839U, 0xbd0bd7a7be0bd7a7U, 0xbdf18bc43cfe4247U, 0x3b4b6839be5b4c5dU,
  0x3e67e218bd54e05aU, 0x3dbe1175bdb67728U, 0x3dfae3d73eb2aa02U, 0x3e1073abbe86f2cbU,
  0x3d88d95ebcb67728U, 0x3d08d95ebda74290U, 0xbd2742903ef162f8U, 0x3dbe1175bdcd460dU,
  0xbd73498bbd54e05aU, 0x3d274290be08d95eU, 0x3bf3498b3e9bdb1dU, 0xbdc5abc1be7eb0feU,
  0xbc73498bbdb67728U, 0xbd45abc1be1bdb1dU, 0x3c3677283e4978e7U, 0x3e32aa02bd45abc1U,
  0x3d980df73df3498bU, 0x3e3a444e3dbe1175U, 0x3e050c383e9440d1U, 0x3e32aa02bcd4e05aU,
  0x3c980df7be237569U, 0x3d6414f23de414f2U, 0x3e2edcdc3e813f12U, 0x3debaf3fbddc7aa6U,
  0x3e237569be013f12U, 0x3dd4e05abb73498bU, 0x3df3498bbe6baf3fU, 0x3d08d95e3c367728U,
  0x3e180df73b73498bU, 0x3ddc7aa63dc5abc1U, 0xbe08d95e3d88d95eU, 0x3daedcdcbe5c7aa6U,
  0x3d180df7bdfae3d7U, 0xbd9073ab3e1440d1U, 0x3bf3498bbc367728U, 0xbd9073abbe511333U,
  0xbd7ed733bc969670U, 0xbd61e1a83e0b0105U, 0x3dfbf1d93e2683e3U, 0xbd0b0105bc508187U,
  0xbd90cbba3ded7713U, 0x3d9f46803d508187U, 0x3c0b0105bde4c702U, 0xbdfbf1d9bd2dc146U,
  0x3e2683e33d8250f4U, 0xbe169670bd5c16f2U, 0xbe37e4043dd64c3dU, 0x3b8b01053d508187U,
  0xbd7341c83d7ed733U, 0x3d4ab6d2bdbc3c0cU, 0xbe123e68bc508187U, 0xbb3956b1bde4c702U,
  0xbd90cbbabe123e68U, 0xbd1c61253c0b0105U, 0xbd4ab6d23e123e68U, 0xbd790c7e3cdc16f2U,
  0x3c8b0105bdf90c7eU, 0xbe18091d3e0c73b2U, 0xbe239e88bcd08187U, 0x3e123e68bc67ac5dU,
  0xbcd08187bd7341c8U, 0xbe2683e3bc222bdbU, 0x3d6d77133d5c16f2U, 0xbcdc16f23df62723U,
  0x3d0b01053cd08187U, 0x3ab956b1be251136U, 0xbd222bdbbcadc146U, 0xbe123e683dd64c3dU,
  0xbd9f4680bd969670U, 0x3d8de660bddefc4dU, 0xbe20b92dbde4c702U, 0xbe00de47bcc4ec1cU,
  0xbc3e694f00000000U, 0xbbcd4f3a00000000U, 0xbd8a98a0bb9c2969U, 0xbe179448bc9bf1cbU,
  0x0U, 0xbc27aaddbb04e0b0U, 0xbe293dc7bdb7d62eU, 0xbbcf3544be0eca3bU,
  0xbd2898363d82a92aU, 0xbd06e02bbe0b172cU, 0xbdbdab3cbd97bc30U, 0x3e3fc6bd3c6c084bU,
  0x3daccf373df4764eU, 0xbd8f4e2ebbca5040U, 0x3e353d3abd97bc30U, 0x3d9bf332bd6c084bU,
  0xbd82a92abd86e02bU, 0x3daccf373d7ce451U, 0x3db53d3a3cb9743bU, 0x3e0b172cbda89836U,
  0x3db10638bd6c084bU, 0xbd06e02b3ddf6347U, 0x3e85d26bbd9bf332U, 0x3c2898363e3b8fbcU,
  0xbd82a92a3cdb2c46U, 0xbd289836bd289836U, 0x3d310638bc289836U, 0x3dc1e23eU,
  0xbd4a5040bd52be43U, 0xbddf6347bdb9743bU, 0x3e39743b3dfce451U, 0xbe06e02bbc86e02bU,
  0xbdb9743b3dc1e23eU, 0x3d52be433d86e02bU, 0x3e17bc30bde39a49U, 0x3de7d14abcec084bU,
  0x3db53d3abdb9743bU, 0xbc06e02bbe008da9U, 0x3da461343d52be43U, 0x3bca50403d6c084bU,
  0xbd5b2c463dbdab3cU, 0xbd8b172c3d5b2c46U, 0x3db10638bdc1e23eU, 0x3e3758babddb2c46U,
  0xbde39a493cca5040U, 0x3d41e23ebd9bf332U, 0xbdfce451bdbdab3cU, 0x3c86e02b3e02a92aU,
  0x3d202a333d06e02bU, 0xbdca5040bd289836U, 0x3e04c4aabe008da9U, 0x3d2898363d41e23eU,
  0x3da46134bc289836U, 0xbe02a92abdaccf37U, 0x3d74764e3df03f4dU, 0xbd639a493b06e02bU,
  0x3bca50403b06e02bU, 0xbd4a50403d289836U, 0x3dd6f545bddf6347U, 0x3db53d3a3dd6f545U,
  0xbcec084bbe1169aeU, 0x3ddb2c46bd310638U, 0x3cdb2c463ddf6347U, 0x3dd6f5453c6c084bU,
  0x3dbdab3cbdd2be43U, 0xbbca50403da46134U, 0xbbca50403d82a92aU, 0xbdb53d3abd4a5040U,
  0xbe08fbac3b06e02bU, 0xbe15a0b03d74764eU, 0x3d82a92a3d6c084bU, 0x3c4a50403d0f4e2eU,
  0x3cfce451bcca5040U, 0xbd8f4e2e3d4a5040U, 0x3ddb2c46bcdb2c46U, 0xbd8f4e2ebd6c084bU,
  0xbd3106383d17bc30U, 0xbd06e02b3da89836U, 0xbbca50403d86e02bU, 0x3c4a50403e4834c0U,
  0x3e09dbfa3d010f4cU, 0xbca44204bd988671U, 0x3de4c9aa3de4c9aaU, 0x3d010f4c3d5eebe1U,
  0xbdb5db60bd92a8a8U, 0xbdaa1fcdbca44204U, 0x3ea5b976bc3bb929U, 0x3d010f4c3e06ed15U,
  0x3cd3304ebd988671U, 0x3dfc40cfbc3bb929U, 0xbd0ccadfbda44204U, 0xbbbbb929be03fe31U,
  0xbc0ccadf3d2ffd96U, 0x3c0ccadf3d4774bcU, 0x3ea730e93daa1fcdU, 0xbd2ffd96bd2ffd96U,
  0x3d53304ebdaffd96U, 0xbd6aa7733dc196f2U, 0x3e2a1fcdbdaa1fcdU, 0x3d86ed15be010f4cU,
  0xbd2442043e0ccadfU, 0xbd4774bcbdc196f2U, 0x3eba41b7bd766306U, 0x3d9886713e35db60U,
  0xbca44204bd9e643bU, 0x3dd90e17be06ed15U, 0xbbbbb929bdf0853dU, 0x3dbbb929bcd3304eU,
  0x3d92a8a8bdd3304eU, 0xbd8ccadf3df66306U, 0xbd92a8a8U, 0x3db5db603da44204U,
  0x3deaa7733d188671U, 0xbdbbb9293d244204U, 0xbe0fb9c33e06ed15U, 0xbda442043d010f4cU,
  0xbdc196f2be03fe31U, 0x3e1b75563d86ed15U, 0xbd810f4c3db5db60U, 0xbcbbb929bd53304eU,
  0xbd988671bdf0853dU, 0xbc3bb929bc8ccadfU, 0xbd2442043d010f4cU, 0x3c3bb929bd53304eU,
  0x3daa1fcdbc6aa773U, 0xbb3bb929bdd90e17U, 0xbd4774bc3dd3304eU, 0x3dbbb929bcd3304eU,
  0xbdeaa773bd010f4cU, 0x3e03fe313cd3304eU, 0x3e3bb929bca44204U, 0xbd3bb9293cd3304eU,
  0xbe010f4c3ddeebe1U, 0x3e15978dbe09dbfaU, 0x3dc196f2bc0ccadfU, 0x3e03fe313d86ed15U,
  0xbde4c9aabcd3304eU, 0x3d8ccadfbd8ccadfU, 0x3d188671bbbbb929U, 0xbd188671bdaa1fcdU,
  0x3d53304ebdb5db60U, 0x3de4c9aa3dc774bcU, 0x3df0853d3db5db60U, 0x3c8ccadf3d2ffd96U,
  0xbdd90e173db5db60U, 0xbdaffd963dcd5285U, 0x3dbbb9293ca44204U, 0x3dc196f23dd90e17U,
  0x3e0fb9c3bdc774bcU, 0xbb3bb9293cd3304eU, 0x3d2ffd963d766306U, 0xbdc196f23e010f4cU,
  0x3e0c63d7bd3620a8U, 0x3dae89f6bcd47b6eU, 0xbe1f5c933d3620a8U, 0xbdfa6ce73d72d635U,
  0xbdcce4bd3d08987eU, 0xbd88987e3e0101ccU, 0xbe72d635be84cd25U, 0x3d902f2fbe8a7e2aU,
  0xbd3620a83dd47b6eU, 0x3e13fa88be102f2fU, 0xbe1b913a3bf2d635U, 0xbc3620a83e04cd25U,
  0xbd97c5e1bd9f5c93U, 0x3dfa6ce7bb72d635U, 0xbe08987ebdc54e0bU, 0x3d26f344be2abe9dU,
  0x3da6f344bde3a8d2U, 0x3d63a8d23d08987eU, 0xbdd47b6e3d17c5e1U, 0xbdc54e0b3e102f2fU,
  0xbd88987e00000000U, 0x3c72d6353d9f5c93U, 0xbc97c5e1be491964U, 0x3dfa6ce7be63a8d2U,
  0x3d72d6353dbdb759U, 0x3dd47b6e3cd47b6eU, 0x3d88987ebd3620a8U, 0x3e2abe9d3dcce4bdU,
  0x3d17c5e13d17c5e1U, 0xbc72d635be04cd25U, 0x3e88987ebb72d635U, 0xbdae89f63dd47b6eU,
  0xbe102f2f3dcce4bdU, 0xbd902f2f3cb620a8U, 0x3e82e779bda6f344U, 0x3e491964bd17c5e1U,
  0x3d8101cc3dfa6ce7U, 0xbd72d635bde3a8d2U, 0x3e102f2f3c97c5e1U, 0xbdbdb759bb72d635U,
  0xbe04cd25bd3620a8U, 0xbd454e0bbdbdb759U, 0x3e97c5e13e04cd25U, 0x3d72d635bddc1220U,
  0xbddc12203e0101ccU, 0x3d547b6e3d72d635U, 0x3d97c5e13d9f5c93U, 0x3d3620a83da6f344U,
  0x3cd47b6ebd9f5c93U, 0x3deb3f833cb620a8U, 0x3ed0b0163c72d635U, 0x3ececa69bd454e0bU,
  0x3cb620a8bdfa6ce7U, 0xbd08987ebdeb3f83U, 0x3de3a8d23e8e4983U, 0x3ddc12203e39ec01U,
  0x3b72d6353d902f2fU, 0x3d72d6353d547b6eU, 0x3ef0f089bdf2d635U, 0x3e8c63d73e0101ccU,
  0x3d3620a8bc97c5e1U, 0xbdeb3f833dfa6ce7U, 0x3e5fdd793e454e0bU, 0xbcb620a8bc72d635U,
  0x3e102f2fbdc54e0bU, 0x3e04cd253dc54e0bU, 0x3ea1423fbd902f2fU, 0x3e6b3f83bde3a8d2U,
  0x3d902f2fbdf2d635U, 0xbe0101ccbe102f2fU, 0x3e67742b3ebbd1adU, 0xbdb620a83e63a8d2U,
  0x3c22ce1cbb023e7dU, 0x3d0a6265bdd3a58bU, 0x3d435dbcbcb315ecU, 0x3b023e7dbdcb81a3U,
  0xbdb315ec3e0e7459U, 0xbd2af2043d9aaa34U, 0x3d8e7459bd4b81a3U, 0xbcf4352a3e107d53U,
  0xbdf4352a3c63ed5bU, 0xbdaaf204bbc35dbcU, 0x3d865071be023e7dU, 0x3e148f47bdf4352aU,
  0x3dcb81a33dc76fafU, 0xbdc76fafbbc35dbcU, 0x3db727e03e2af204U, 0x3df4352a3e1ebc28U,
  0x3d1aaa343cf4352aU, 0xbe0a6265bd8e7459U, 0x3d9ebc28bcc35dbcU, 0xbc63ed5b3d9ebc28U,
  0xbd74352abe065071U, 0x3e1ebc283ce3ed5bU, 0x3e813a003df8471eU, 0xbbc35dbc3e24d716U,
  0x3db315ec3e003583U, 0x3de3ed5b3d969841U, 0xbdf8471e3ce3ed5bU, 0xbc435dbcbd9aaa34U,
  0x3ddbc9733e0a6265U, 0x3db727e0bdfc5912U, 0xbd3315ecbe0c6b5fU, 0x3b023e7d3c823e7dU,
  0xbc63ed5b3e0e7459U, 0x3d865071be0a6265U, 0x3c22ce1cbdb315ecU, 0xbb023e7dbda6e010U,
  0xbe044777bdcf9397U, 0xbd823e7d3b823e7dU, 0xbe1cb32e3e044777U, 0xbdb727e0bcb315ecU,
  0x3c435dbc3cc35dbcU, 0xbdb727e0bd92864dU, 0x3e003583bd9ebc28U, 0xbdcb81a3bc435dbcU,
  0xbb823e7dbd3b39d4U, 0x3db727e0bde3ed5bU, 0xbddbc973bc22ce1cU, 0xbc823e7d3c92864dU,
  0x3de7ff4f3d92864dU, 0x3d3b39d4be107d53U, 0x3dcf9397bdd3a58bU, 0x3e18a13abd865071U,
  0x3d3b39d43dfc5912U, 0xbd12864d3dbb39d4U, 0x3e476fafbdd7b77fU, 0xbd9ebc283e0c6b5fU,
  0x3d8a62653e0c6b5fU, 0xbdaaf204bd4b81a3U, 0x3c435dbcbd9aaa34U, 0x3df4352a3d969841U,
  0x3c92864d3d435dbcU, 0xbd74352abd0a6265U, 0x3e003583bcf4352aU, 0x3dbf4bc83ddfdb67U,
  0xbd865071bd1aaa34U, 0xbd5bc973bd12864dU, 0x3e003583bdbf4bc8U, 0x3d969841bdbb39d4U,
  0xbdbf4bc8bd6c1143U, 0xbd63ed5b3e065071U, 0x3e044777bcb315ecU, 0xbd7c59123d8a6265U,
  0xbdf4e53d3dba1edcU, 0x3e17d5cfbd092436U, 0xbcc3ea97bc892436U, 0xbda687673e107d03U,
  0x3d3053223d9cbbacU, 0x3c6b1982bbeb1982U, 0x3e59f4fb3c9cbbacU, 0x3c1cbbac3e305322U,
  0xbddc67ea00000000U, 0x3de633a5be043e59U, 0x3df4e53d3d092436U, 0xbc9cbbac3b9cbbacU,
  0xbdba1edc3c9cbbacU, 0x3d8924363d74e53dU, 0x3e9b82353c9cbbacU, 0xbd74e53d3e3538ffU,
  0x3c1cbbac3e12eff1U, 0xbd97d5cf3cd7820cU, 0x3e1a48bdbdd29c2fU, 0x3d4db6523e1f2e9bU,
  0x3d1cbbac3dba1edcU, 0x3dba1edc3e01cb6aU, 0x3dd7820c3e3a1edcU, 0x3d43ea97bcb05322U,
  0x3dfeb0f8be092436U, 0xbd9cbbac3dba1edcU, 0x3e01cb6a3defff5fU, 0xbdb538ffbc9cbbacU,
  0x3dd7820c3dcdb652U, 0xbd7eb0f83dd7820cU, 0xbddc67ea3cfeb0f8U, 0x3dbf04babe092436U,
  0x3e0924363df9cb1aU, 0x3e0b9725bda68767U, 0x3c43ea97bcd7820cU, 0x3d97d5cf3e107d03U,
  0x3e12eff13d97d5cfU, 0x3da1a189bd614dc7U, 0x3cfeb0f83d92eff1U, 0x3da68767bbeb1982U,
  0x3cc3ea9700000000U, 0x3d43ea973d92eff1U, 0xbb1cbbac3e0b9725U, 0x3d614dc7bd74e53dU,
  0x3ddc67eabdefff5fU, 0x3e1cbbacbdba1edcU, 0xbe4db6523d74e53dU, 0x3df9cb1abde633a5U,
  0x3dbf04babceb1982U, 0xbd2687673ceb1982U, 0xbd9cbbacbd97d5cfU, 0x3dd7820cbde14dc7U,
  0x3cb053223df9cb1aU, 0xbd2687673d7eb0f8U, 0x3ceb1982bd614dc7U, 0xbbeb19823cfeb0f8U,
  0xbcfeb0f8bdf9cb1aU, 0x3d43ea973de633a5U, 0x3e2414783d1cbbacU, 0x3dd29c2f3d4db652U,
  0xbd0924363db538ffU, 0xbdb538ff3c43ea97U, 0x3e59f4fb3e1cbbacU, 0x3cd7820cbda1a189U,
  0x3d0924363defff5fU, 0xbde14dc7bdab6d44U, 0xbd6b19823e06b148U, 0x3c9cbbacbd614dc7U,
  0xbdfeb0f8bcd7820cU, 0x3d3053223d8e0a14U, 0x3e79cb1abd892436U, 0x3d8e0a143e37abeeU,
  0xbd5b9a083df18fd6U, 0x3e19b89f3e117c72U, 0x3e4026c7bcc5a43bU, 0x3e2a30fa3de694efU,
  0xbd0ebdb93e117c72U, 0xbd45a43b3d718fd6U, 0x3e8a9fa23e094045U, 0x3d2fae6d3e61177cU,
  0x3d19b89fbdfc8abdU, 0xbbafae6dbdf70d49U, 0x3e42e58100000000U, 0x3d24b386bdc026c7U,
  0xbdfc8abdbe094045U, 0xbc99b89fbe19b89fU, 0x3df70d493e3aa954U, 0xbdaa30fa3b2fae6dU,
  0x3d943b2cbcdb9a08U, 0xbd7c8abd3d19b89fU, 0x3e2772403e16f9e6U, 0xbb2fae6dbd6694efU,
  0xbd8ebdb93ddb9a08U, 0x3d9f3613bdd09f21U, 0x3eae4f103e61177cU, 0xbda4b3863d99b89fU,
  0xbd99b89f3dbaa954U, 0xbbafae6d3d19b89fU, 0xbd99b89f3c5b9a08U, 0xbdc026c73d45a43bU,
  0x3de1177cbd99b89fU, 0xbdf70d493dafae6dU, 0xbdc026c73de1177cU, 0x3dc5a43bbe4026c7U,
  0x3d943b2cbc83c2d2U, 0xbcf18fd63df70d49U, 0xbd99b89f3e06818bU, 0x3d6694ef3bafae6dU,
  0x3e117c723c83c2d2U, 0x3cf18fd6be094045U, 0xbe63d6353d943b2cU, 0x3d894045bd6694efU,
  0x3db52be03d509f21U, 0x3d9f36133df18fd6U, 0xbb2fae6d3d9f3613U, 0xbdcb21ae3d718fd6U,
  0x3d03c2d2bd5b9a08U, 0xbcdb9a083d9f3613U, 0xbe6c12623de1177cU, 0xbe06818bbb2fae6dU,
  0x3dd09f21bd5b9a08U, 0x3dbaa954bd8ebdb9U, 0x3c03c2d23e117c72U, 0xbda4b3863d509f21U,
  0xbdcb21ae3dec1262U, 0xbd8ebdb93d943b2cU, 0xbd19b89f3dd09f21U, 0xbc03c2d23b2fae6dU,
  0x3cafae6d3e010418U, 0xbdd61c953c83c2d2U, 0xbd7c8abdbde694efU, 0x3d894045bdf18fd6U,
  0x3d509f213e094045U, 0x3d3aa9543c03c2d2U, 0x3df70d49bde694efU, 0x3c2fae6d3e1c7759U,
  0xbdf70d49bdafae6dU, 0x3d9f36133d0ebdb9U, 0x3b2fae6d3de694efU, 0xbd99b89fbcc5a43bU,
  0xbdc026c7be0ebdb9U, 0xbdf70d49be143b2cU, 0x3d0ebdb9be0bfeffU, 0xbe117c723e1c7759U,
  0xbb5e32a3bd9d63deU, 0x3cde32a3be0d302dU, 0x3d8d302d3d6774bfU, 0x3d5e32a33db48924U,
  0x3d504f793de0832aU, 0x3ce774bf3a9421c2U, 0xbd599195bd18c2d0U, 0x3d7e9a05bcafe816U,
  0x3d8d302dbdcbae6bU, 0x3dd2a0003e0766dbU, 0xbe02c5cdbcb92a32U, 0xbd98c2d03c1421c2U,
  0x3d3dcb41bd26a5faU, 0xbc4bae6b3df0b6dbU, 0xbcf0b6db3dafe816U, 0x3da455733d019d8aU,
  0x3bde32a33d348924U, 0x3e02c5cd3c5e32a3U, 0x3d54f087be03ee11U, 0xbe019d8a3e0f80b4U,
  0xbdd99195bc9421c2U, 0x3b5e32a3bdf9f8f7U, 0x3df0b6dbbd599195U, 0x3dd99195bd019d8aU,
  0xbce774bfbd1421c2U, 0x3d54f0873dc4bcd6U, 0x3d3489243d9b1357U, 0x3dde32a33d8d302dU,
  0xbce774bf3c9d63deU, 0xbb9421c2bbde32a3U, 0x3d8adfa6bdcdfef2U, 0xbd2204ecbe0f80b4U,
  0xbd019d8abd6c15cdU, 0x3d8f80b43dd04f79U, 0xbdf307623db92a32U, 0x3c019d8a3d83ee11U,
  0xbd0f80b43d26a5faU, 0xbcf9f8f7bb5e32a3U, 0xbcde32a3bdf557e9U, 0xbdfc497ebdbb7abaU,
  0x3d18c2d0bd70b6dbU, 0x3d9d63debdf7a870U, 0x3d6c15cdbe11d13bU, 0x3d7e9a053d91d13bU,
  0x3d819d8abce774bfU, 0x3e0f80b4bcf0b6dbU, 0x3e063e983bde32a3U, 0x3d967249bdb92a32U,
  0xbdf9f8f7bd967249U, 0x3df557e93dafe816U, 0xbdad978fbc019d8aU, 0x3c819d8abd7557e9U,
  0x3e02c5cdbd9fb465U, 0xbe02c5cdbd504f79U, 0xbcde32a3bd83ee11U, 0xbe02c5cdbdd2a000U,
  0xbd6c15cdbd9b1357U, 0x3df7a870bd7e9a05U, 0x3d54f087bdcbae6bU, 0xbd3489243d5e32a3U,
  0x3d2fe8163dc26c4fU, 0x3d967249bd91d13bU, 0xbd426c4fbcf0b6dbU, 0x3cb92a323d8adfa6U,
  0x3dde32a3bd063e98U, 0xbb5e32a33e063e98U, 0xbe0e5870bdcdfef2U, 0x3dee66543cafe816U,
  0x3dd04f793ccbae6bU, 0x3b9421c23c8adfa6U, 0x3d9fb465bda6a5faU, 0xbe12f97ebc26a5faU,
  0xbcda79573d4cd1c2U, 0x3d01b80cbda744e7U, 0x3d2aaecc3d81b80cU, 0x3df25e9d3d2aaeccU,
  0xbdaaaecc3e0521f1U, 0x3d8f5fa13d7c9c4dU, 0x3e3bc0473cccd1c2U, 0x3e06d6e43d2aaeccU,
  0x3deb8ad23d8521f1U, 0x3d53a58cbe0bf5bcU, 0x3d8bf5bc3dccd1c2U, 0xbd3f2a2cbcda7957U,
  0x3d45fdf73e01b80cU, 0x3dae18b13d6ef4b7U, 0x3dc5fdf73d01b80cU, 0xbd9d07373e34ec7cU,
  0x3dd03ba7bd75c882U, 0xbd23db013d4cd1c2U, 0xbdbbc0473e0f5fa1U, 0x3daaaecc3d01b80cU,
  0x3d75c882bddde33cU, 0x3e20711cbd01b80cU, 0x3e58c4643d53a58cU, 0x3d01b80cbdb85661U,
  0xbcbf2a2cbcb18297U, 0x3d614d223c75c882U, 0x3d088bd63c75c882U, 0x3d999d513ca3db01U,
  0xbd81b80c3d614d22U, 0xbde14d223cda7957U, 0x3d888bd6bd8bf5bcU, 0x3d92c9863db4ec7cU,
  0x3ddde33cbba3db01U, 0x3da0711c3e0f5fa1U, 0x3dc967dc3d888bd6U, 0xbbda7957bdf5c882U,
  0x3e06d6e4bdd03ba7U, 0xbd53a58c3d1d0737U, 0x3d75c8823db85661U, 0x3c75c8823d385661U,
  0xbdd03ba7be0daaaeU, 0xbb5a7957bd888bd6U, 0xbd999d51bc088bd6U, 0x3c888bd63e036cfeU,
  0x3d53a58cbe036cfeU, 0xbd45fdf7bdf5c882U, 0xbe3337893d385661U, 0xbc888bd6bdb4ec7cU,
  0xbb5a79573db4ec7cU, 0x3e0a40c9bdd3a58cU, 0x3e2744e73d8521f1U, 0x3e3337893cbf2a2cU,
  0x3d2aaeccbd318297U, 0xbca3db01bbda7957U, 0x3e1b5244bd01b80cU, 0x3cbf2a2cbce820ecU,
  0xbd9d07373db18297U, 0x3dc5fdf73ba3db01U, 0x3d2aaecc3d96336cU, 0x3dbbc0473e20711cU,
  0xbdf5c882bcf5c882U, 0x3c888bd6bd0f5fa1U, 0xbb5a7957bdda7957U, 0xbd8f5fa1bd6ef4b7U,
  0xbdd03ba7bd318297U, 0x3dc294113e12c986U, 0x3d8bf5bcbd4cd1c2U, 0xbdd70f72bd23db01U,
  0xbcccd1c23d999d51U, 0x3dc5fdf73d6ef4b7U, 0x3e3182973e23db01U, 0xbd3f2a2c3e17e85eU,
  0x3e07c5383ca3f2fbU, 0x3e19b3cbbc8f749cU, 0xbce16e19bdf0cce1U, 0x3e2ba25f3e0a5504U,
  0xbbf5ec78bbf5ec78U, 0xbd42b08abe1c4397U, 0x3ea2ab15bd2e322bU, 0xbc23f2fb3e42b08aU,
  0xbdc7d022be02a5a0U, 0x3e05356c3e0f749cU, 0x3cf5ec7800000000U, 0x3b23f2fbbba3f2fbU,
  0x3db351c3bca3f2fbU, 0xbd9ed363bd85356cU, 0x3dfb0c103e0015d4U, 0xbda91293bda3f2fbU,
  0x3d38715abda91293U, 0xbde16e19bda91293U, 0x3e30c1f7bd19b3cbU, 0x3df5ec78bdc2b08aU,
  0xbd949433bddc4e81U, 0x3e0ce4d0bb23f2fbU, 0x3e735cadbca3f2fbU, 0x3dd20f523e3b0126U,
  0xbd9494333b23f2fbU, 0x3bf5ec783d38715aU, 0x3de16e193dd72ee9U, 0x3d23f2fb3e120468U,
  0x3d38715abd2e322bU, 0xbdccefba3dc2b08aU, 0xbe23f2fb3dae322bU, 0xbd616e193dc2b08aU,
  0x3e0a55043e0015d4U, 0x3d6bad49bbf5ec78U, 0xbdf5ec783de68db1U, 0xbdbd90f23e149433U,
  0x3d2e322b3d19b3cbU, 0x3ce16e193c4cefbaU, 0xbd4cefba00000000U, 0xbdd72ee93d42b08aU,
  0xbdd20f523e0a5504U, 0x3dfb0c10bdd72ee9U, 0xbd6bad49bda91293U, 0x3df5ec783d6bad49U,
  0xbe02a5a03ce16e19U, 0xbd0f749c3e02a5a0U, 0xbd2e322b3c4cefbaU, 0xbd19b3cbbe149433U,
  0x3db351c3bdccefbaU, 0x3e1723ff3d8015d4U, 0xbd4cefbabddc4e81U, 0x3d75ec783de16e19U,
  0x3d572ee93e05356cU, 0xbda3f2fb3d05356cU, 0xbc4cefba3d42b08aU, 0x3d23f2fbbbf5ec78U,
  0xbd0f749c3ce16e19U, 0x3dae322bbd2e322bU, 0x3d05356c3d4cefbaU, 0x3dae322b3c75ec78U,
  0xbdb351c33b23f2fbU, 0x3d38715abd6bad49U, 0x3dc7d0223d572ee9U, 0xbca3f2fb3e38715aU,
  0x3d38715a3debad49U, 0xbe0ce4d03db8715aU, 0x3e2912933d9ed363U, 0x3dccefbabcf5ec78U,
  0xbe05356cbcf5ec78U, 0x3de16e19bdae322bU, 0xbd8f749cU, 0xbca3f2fb3d8f749cU,
  0xbdd5eb0b3e121727U, 0xbe0cdf78bdf53925U, 0xbd26f5e3bd316541U, 0x3dc643fe3d4643feU,
  0x3dbbd49f3dcb7badU, 0x3d26f5e3bc26f5e3U, 0x3e4b7bad3e14b2feU, 0xbdeac9c7bc7a70d4U,
  0xbca6f5e33d7a70d4U, 0x3d6592183e050bf1U, 0x3e3401193c7a70d4U, 0x3db69cf000000000U,
  0x3de592183deac9c7U, 0x3dc10c4e3d974ed6U, 0x3ea5a7f7bcfa70d4U, 0xbda6f5e33d3bd49fU,
  0xbda6f5e33c26f5e3U, 0x3da1be343de59218U, 0x3e21be343de05a69U, 0x3d1217273d1c8685U,
  0xbc50b35cbdc643feU, 0x3e0f7b4fbdbbd49fU, 0x3e050bf1bbfa70d4U, 0xbe07a7c83d316541U,
  0x3ce59218bcfa70d4U, 0x3c7a70d43c50b35cU, 0xbe050bf1bdc643feU, 0x3c26f5e3bc7a70d4U,
  0x3d7001763d974ed6U, 0xbcbbd49f3ddb22baU, 0xbd9217273d827019U, 0x3dc10c4ebdcb7badU,
  0x3d07a7c83ce59218U, 0xbd07a7c8bdeac9c7U, 0xbc26f5e3bcfa70d4U, 0x3d5b22babd26f5e3U,
  0xbce59218bc50b35cU, 0xbe07a7c8be027019U, 0x3d1217273d8cdf78U, 0x3bfa70d4be3938c8U,
  0xbd3bd49fbdd5eb0bU, 0x3d87a7c8bbfa70d4U, 0xbcbbd49f3d4643feU, 0x3d974ed63e027019U,
  0x3d26f5e33d659218U, 0x3bfa70d4bd316541U, 0xbbfa70d43dd5eb0bU, 0x3dfa70d4be050bf1U,
  0xbda1be34bd921727U, 0x3d5b22babdac2d92U, 0xbdac2d92be027019U, 0x3df00176bda6f5e3U,
  0xbb26f5e3be0f7b4fU, 0x3db69cf0bd659218U, 0x3d07a7c8bd8cdf78U, 0x3c9217273e3bd49fU,
  0x3e121727bd07a7c8U, 0x3dc10c4e3cbbd49fU, 0x3e07a7c8bd921727U, 0xbdc10c4ebd700176U,
  0xbd121727bda1be34U, 0xbb26f5e3bc50b35cU, 0x3d07a7c83dffa884U, 0x3dfa70d4bcbbd49fU,
  0xbd3165413de05a69U, 0xbba6f5e300000000U, 0x3d7a70d43c7a70d4U, 0x3e2ec96abd87a7c8U,
  0x3d1217273dbbd49fU, 0x3cbbd49fbe0a43a0U, 0xbd07a7c83e26f5e3U, 0x3c26f5e33e340119U,
  0x3e0cd852bd3bcb18U, 0x3db588983deddf1fU, 0x3e48501a3db58898U, 0xbc963c143caf4617U,
  0xbe0ff993bdd4d51cU, 0xbdeddf1fbd7a6420U, 0x3eaa94363d3bcb18U, 0xbd9c7e943e358898U,
  0xbd615a1d3dbbcb18U, 0xbd8ff993bddb179cU, 0x3e0ff9933e0695d1U, 0xbc7a6420bc48501aU,
  0xbd963c14bc7a6420U, 0x3bc8501abda2c115U, 0x3ea451b53dce929bU, 0x3e0374913da2c115U,
  0x3d837491bd163c14U, 0x3d09b7123da90396U, 0xbd89b712bd22c115U, 0x3e290396bdd4d51cU,
  0x3d09b7123dc8501aU, 0xbde15a1d3deddf1fU, 0x3ec6bf7a3c7a6420U, 0x3c163c14bc48501aU,
  0x3d48501abd89b712U, 0xbdce929b3deddf1fU, 0xbdb58898bb48501aU, 0x3df421a0be005351U,
  0x3d3bcb183dce929bU, 0xbe005351bd3bcb18U, 0xbe51b3db3d837491U, 0x3d963c14be358898U,
  0x3dd4d51c3d3bcb18U, 0x3da2c1153e0cd852U, 0x3d6ddf1f3d7a6420U, 0x3b48501abd2f4617U,
  0xbc48501a3b48501aU, 0xbdbbcb18bd163c14U, 0x3c963c143c963c14U, 0xbd615a1dbdd4d51cU,
  0xbdf421a03caf4617U, 0xbc963c14bdfa6420U, 0xbe290396bd89b712U, 0xbc48501a3c163c14U,
  0xbdce929bbda90396U, 0x3de79c9ebd2f4617U, 0xbe1c7e94bd22c115U, 0x3d3bcb18bc48501aU,
  0xbe005351bd2f4617U, 0xbe09b7123da90396U, 0x3e0053513d89b712U, 0xbda2c115bda2c115U,
  0x3deddf1fbd837491U, 0xbb48501abe163c14U, 0x3d09b712bdfa6420U, 0x3dc20d993df421a0U,
  0x3d8ff9933dc8501aU, 0xbde15a1dbd2f4617U, 0x3dfa6420bdc20d99U, 0xbdbbcb18bd615a1dU,
  0x3d48501a3d48501aU, 0xbd963c14bd615a1dU, 0x3e131ad33d837491U, 0xbd54d51cbd8ff993U,
  0x3e0cd852bdf421a0U, 0xbd615a1d3e005351U, 0xbd6ddf1fbd54d51cU, 0x3e25e2563d8ff993U,
  0xbdbbcb18bdce929bU, 0xbdce929b3d9c7e94U, 0xbce15a1d3d54d51cU, 0xbd89b712bd963c14U,
  0x3e009dd1bd7cb856U, 0xbd196febbbd89e01U, 0xbd61a4963de1a496U, 0x3e2dbebb3cfcb856U,
  0x3d61a496bdb906f6U, 0x3d4690d63d2b7d16U, 0x3e71701c3c906956U, 0x3c1069563e0e27b1U,
  0xbe09a4663de1a496U, 0x3da6f9cb3d9df336U, 0xbd1069563d8762c1U, 0x3d4690d6bd7cb856U,
  0x3dbd8a41bdc20d8cU, 0xbdd89e013d4f976cU, 0x3e0e27b1bdd89e01U, 0x3dbd8a413d196febU,
  0xbd3483ac3d61a496U, 0x3dc690d63d73b1c1U, 0xbcfcb8563d2b7d16U, 0x3e227681bd61a496U,
  0xbc106956bca27681U, 0xbdf8350cbd3483acU, 0x3e8f48833de627e1U, 0x3b9069563dcb1421U,
  0x3df3b1c13b106956U, 0x3d3483acbd3d8a41U, 0x3dbd8a41bd94eca1U, 0xbd589e013dbd8a41U,
  0x3def2e763d73b1c1U, 0xbdc20d8cbd9df336U, 0xbd73b1c1bca27681U, 0xbdab7d16bbd89e01U,
  0xbd61a496bd4f976cU, 0xbdc20d8cbca27681U, 0x3b1069563cc690d6U, 0x3e009dd13d6aab2cU,
  0x3e02df76bdb906f6U, 0x3d9069563b906956U, 0xbe324206bde1a496U, 0xbdab7d16bc906956U,
  0xbca27681bda27681U, 0x3d8762c13cfcb856U, 0xbd7cb856bdab7d16U, 0x3e1bb1913db906f6U,
  0xbe0e27b13d589e01U, 0x3ceaab2cbd73b1c1U, 0x3d73b1c13ddd214cU, 0xbe0be60b3d7cb856U,
  0x3e0e27b1bd589e01U, 0x3e0be60bbd73b1c1U, 0x3e63e63c3d906956U, 0x3e3242063d61a496U,
  0xbd3d8a413d9df336U, 0xbdef2e763e106956U, 0x3e7a76b13e3fcbe6U, 0xbbd89e013e840049U,
  0x3c7cb8563d9df336U, 0xbd8762c1bd7cb856U, 0x3e2276813df3b1c1U, 0xbceaab2cbd4690d6U,
  0xbdcb1421bd589e01U, 0xbd73b1c13e05211bU, 0x3e26f9cb3d3483acU, 0xbd4690d63e2b7d16U,
  0xbc9069563dd89e01U, 0x3d589e013da27681U, 0xbd196feb3cc690d6U, 0x3dc20d8c3e009dd1U,
  0x3d996feb3d82df76U, 0xbdef2e76bd8762c1U, 0x3e0762c1bda27681U, 0xbd4f976c3dab7d16U,
  0x3df6197e3d347918U, 0xbd55494c3e075ad2U, 0xbe3cad253bc4e132U, 0xbd7e4d8b3d8f8edfU,
  0x3e119be23d9bdcf2U, 0x3d65b165bd4d153fU, 0xbde5b1653d2410ffU, 0x3e13a8e6be55494cU,
  0x3e0133c9bddd7d58U, 0x3e0340cc3de1975fU, 0x3b8340ccbb8340ccU, 0xbe1de9f53d76197eU,
  0x3d13a8e6bdede572U, 0xbdc8fb38bcc4e132U, 0xbe0b74d93d13a8e6U, 0x3df1ff78be823a4aU,
  0xbe0967d6bdb47918U, 0xbce5b165bc0340ccU, 0xbdd5494c3cf6197eU, 0xbe0340cc3c65b165U,
  0x3d8340cc3dac450cU, 0x3d875ad2bd44e132U, 0xbe1de9f53e0133c9U, 0xbd1bdcf2be36861cU,
  0x3ca410ff3ce5b165U, 0xbd2410ffbdd12f45U, 0xbd93a8e63de5b165U, 0xbc93a8e6be075ad2U,
  0xbdf6197e3e0f8edfU, 0x3d93a8e63d97c2ecU, 0x3dd5494c3dac450cU, 0xbd55494cbd76197eU,
  0xbdc0c72cbd3cad25U, 0xbde9cb6bbd9ff6f9U, 0x3dd96352bdf1ff78U, 0x3cb479183c44e132U,
  0x3db05f12bdc0c72cU, 0xbddd7d583de9cb6bU, 0x3e054dcf3c65b165U, 0xbdac450c3d13a8e6U,
  0xbb0340cc3dc8fb38U, 0xbdcd153fbd97c2ecU, 0x3e13a8e63d0b74d9U, 0xbdf1ff783e0b74d9U,
  0xbe13a8e63dede572U, 0xbd875ad23d44e132U, 0x3e3eba283e305f12U, 0x3cd5494cbd8f8edfU,
  0x3dd96352bd13a8e6U, 0xbd93a8e6bc65b165U, 0x3df1ff783dc8fb38U, 0x3e0340cc3cc4e132U,
  0xbdc8fb38bd2c450cU, 0x3c8340ccbe0d81dcU, 0xbda410ff3cd5494cU, 0x3e0340ccbe7a3385U,
  0xbdfa3385be13a8e6U, 0xbe0967d6bb0340ccU, 0x3e0b74d9bdb05f12U, 0xbdac450c3db05f12U,
  0x3dac450c3e0f8edfU, 0xbc93a8e63c8340ccU, 0xbd97c2ecbd55494cU, 0x3c8340ccbe326c15U,
  0xbb8340cc3d55494cU, 0x3d875ad2bdf1ff78U, 0x3e2410ffbd55494cU, 0x3c2410ffU,
  0xbc93a8e63d875ad2U, 0x3d9ff6f9bd0340ccU, 0xbde9cb6bbca410ffU, 0xbde9cb6bbe76197eU,
  0xbe03f43abe0fbc51U, 0x3d7e7b94be019902U, 0x3e3314983b16cdf9U, 0x3d4f5b363e03f43aU,
  0xbdc5ee573d750eb5U, 0xbd03f43a3d921789U, 0x3e8fbc513e0b05e2U, 0x3d4f5b363d83f43aU,
  0xbdcaa4c73ce234f6U, 0xbdeba1d5bd45ee57U, 0x3e1472c1bd45ee57U, 0x3e3a263f3e229610U,
  0x3d83f43abdb31498U, 0x3e1b8469bdc137e7U, 0x3e95a05d3e4137e7U, 0x3cbc81773da9a7b8U,
  0xbd03f43abcbc8177U, 0xbd203ad93b16cdf9U, 0xbce234f63d88aaaaU, 0x3c83f43a3e064f72U,
  0xbb96cdf9bdfe7b94U, 0xbd29a7b8bda9a7b8U, 0x3e51b66e3e1ddfa1U, 0xbd203ad9bccf5b36U,
  0x3d9b8469U, 0xbd7e7b94bd29a7b8U, 0xbcbc8177bccf5b36U, 0x3df50eb5bd8d6119U,
  0xbcf50eb53dcaa4c7U, 0xbd750eb5bc6234f6U, 0xbe331498bda4f148U, 0xbbe234f63d45ee57U,
  0xbdc137e73df50eb5U, 0x3da9a7b8be03f43aU, 0x3d7e7b943e064f72U, 0xbca9a7b83df50eb5U,
  0x3e03f43a3df50eb5U, 0x3d45ee57bd331498U, 0xbda9a7b8bd0d6119U, 0x3d8d61193d921789U,
  0x3df05845U, 0x3e1472c13cbc8177U, 0x3c96cdf93e229610U, 0x3c96cdf9bdc137e7U,
  0xbd9217893ca9a7b8U, 0xbd58c816bd3c8177U, 0xbbe234f6bde6eb65U, 0x3dcaa4c7be29a7b8U,
  0x3db7cb07bd0d6119U, 0x3c6234f63db31498U, 0x3b16cdf93dd8c816U, 0xbcf50eb500000000U,
  0xbdd411a6bc83f43aU, 0xbcf50eb5bd4f5b36U, 0xbbe234f63dd8c816U, 0x3d750eb5bdc5ee57U,
  0xbe064f72bc83f43aU, 0x3d203ad93be234f6U, 0xbd921789bdfe7b94U, 0x3d6ba1d53de234f6U,
  0x3c3c8177bdcf5b36U, 0xbde234f6bc6234f6U, 0x3e29a7b83d9b8469U, 0x3c16cdf93b16cdf9U,
  0xbdcf5b36bd3c8177U, 0xbc96cdf93e121789U, 0x3d6ba1d5bde6eb65U, 0x3ddd7e86be019902U,
  0xbd4f5b363df05845U, 0x3deba1d53d83f43aU, 0x3dfe7b943d6234f6U, 0xbbe234f600000000U,
  0x3d9be29dbe075fbfU, 0x3d65b9c0bd44e85bU, 0xbe4902883dc4e85bU, 0xbe0f94183dd5510dU,
  0xbc0345923d65b9c0U, 0x3e075fbf3d762272U, 0xbeb68cbf3cc4e85bU, 0xbd65b9c0be1be29dU,
  0xbce5b9c03db47fa9U, 0xbd55510d3d2416f6U, 0xbd8345923e075fbfU, 0xbd347fa93d9be29dU,
  0xbd8345923e13ae44U, 0x3da416f63dbcb402U, 0xbf023f073b834592U, 0xbcc4e85bbe65b9c0U,
  0xbd44e85b3dbcb402U, 0x3dfe56cbbdf62272U, 0x3d13ae44be0b79ebU, 0xbc44e85bU,
  0xbddd8566bde5b9c0U, 0x3c034592bd9be29dU, 0xbeb27292bd347fa9U, 0x3dfe56cbbec4e85bU,
  0xbd13ae44bd65b9c0U, 0x3d13ae443d65b9c0U, 0xbdcd1cb4U, 0x3d347fa9bd2416f6U,
  0x3d834592bd8b79ebU, 0xbd9be29dbd8b79ebU, 0x3e1be29d3e0f9418U, 0x3d347fa9bc034592U,
  0x3dac4b50bd55510dU, 0x3ce5b9c03c44e85bU, 0x3e075fbfbe075fbfU, 0x3d2416f6bd8b79ebU,
  0x3dfe56cb3d55510dU, 0x3dfe56cbbdb47fa9U, 0x3e44e85b3d55510dU, 0xbc0345923d65b9c0U,
  0x3dbcb4023c834592U, 0x3e075fbf3de5b9c0U, 0x3ddd85663e034592U, 0x3df62272bd034592U,
  0x3e0b79eb3e034592U, 0xbd55510d3de5b9c0U, 0x3e3cb4023dd5510dU, 0x3cc4e85b3cc4e85bU,
  0x3d9be29d3d65b9c0U, 0xbce5b9c03ddd8566U, 0x3eb0657c3de5b9c0U, 0x3ea6240dbc834592U,
  0x3d8345923d347fa9U, 0x3e0b79eb3d762272U, 0x3c0345923ddd8566U, 0x3c834592bc44e85bU,
  0x3df622723e034592U, 0xbd8345923ddd8566U, 0x3e8d8701bd44e85bU, 0x3e97c8713d65b9c0U,
  0x3e0f94183e0b79ebU, 0xbd55510dbd13ae44U, 0x3dbcb4023eac4b50U, 0xbd55510d3d9be29dU,
  0x3da416f6be13ae44U, 0x3e075fbfbd2416f6U, 0x3dcd1cb4bdedee19U, 0x3e3899d5bddd8566U,
  0xbdc4e85b3e0f9418U, 0x3dd5510d3d13ae44U, 0x3dc4e85b3eb47fa9U, 0xbd8345923d834592U,
  0xbdfa61583d25403fU, 0xbd113876bd5251c5U, 0x3d434bee3db1c51dU, 0xbdc5cce73c344617U,
  0x3de6598fbd84b398U, 0x3c705d74bc705d74U, 0xbdbe49fb3c203e4dU, 0xbca03e4dbe13b96fU,
  0x3df7e05f3e00f222U, 0xbddc55aabd963a68U, 0xbde8da883d89b58aU, 0x3d8eb77dbdd753b7U,
  0xbc963a683da2bf46U, 0xbdd9d4b13df2de6dU, 0xbc82329fbe073491U, 0x3e1278f23de1579cU,
  0xbdfce252bd705d74U, 0x3e02329fbdd753b7U, 0x3d5251c53d89b58aU, 0xbe0eb77d3d073491U,
  0x3daf4424bc203e4dU, 0x3cc84de03dd9d4b1U, 0x3cb44617bb705d74U, 0xbd0c36833e02329fU,
  0x3e02329fbe0eb77dU, 0xbd5251c53d5c55aaU, 0xbd3948093c705d74U, 0xbe1efdd03da2bf46U,
  0xbcf05d74bde8da88U, 0xbcd251c5bdff634bU, 0x3d61579cbd2f4424U, 0x3cbe49fbbda03e4dU,
  0xbd98bb613dc84de0U, 0xbd705d74be113876U, 0xbdb948093d02329fU, 0x3dfa61583d8c3683U,
  0x3e0eb77d3d93b96fU, 0x3d8c3683bda2bf46U, 0x3bc84de0bba03e4dU, 0xbda7c139bc5c55aaU,
  0x3ba03e4dbde8da88U, 0x3db6c710bde1579cU, 0x3dcfd0ccbdbe49fbU, 0xbd963a68bdc84de0U,
  0x3d66598fbc5c55aaU, 0x3e03731b3bc84de0U, 0x3d755f66bdb44617U, 0xbb203e4dbd203e4dU,
  0x3d2a42323c8c3683U, 0x3cc84de03de6598fU, 0xbdb1c51dbcdc55aaU, 0xbc963a68bd6b5b81U,
  0x3db44617bdd753b7U, 0x3e05f414bd203e4dU, 0xbdb1c51dbc5c55aaU, 0xbd5251c53cbe49fbU,
  0x3d6b5b813e0ff7f9U, 0xbcf05d74be13b96fU, 0x3d3e49fbbe04b398U, 0xbc705d74bd073491U,
  0xbcaa4232bdcaced9U, 0xbe073491bdeddc7aU, 0x3d203e4d3de8da88U, 0x3e0ff7f9bdacc32bU,
  0x3df05d74bd9b3c5bU, 0x3de8da88be0af607U, 0xbdfce2523d2f4424U, 0xbe0af6073d5251c5U,
  0x3aa03e4dbdf05d74U, 0x3caa4232bd5251c5U, 0x3d2a42323e05f414U, 0x3d5251c53dcaced9U,
  0xbe29cbe6be100468U, 0xbe2e83d73d9c163aU, 0xbdae1454be278e17U, 0xbe1e976ebce93f8dU,
  0xbe2e8a42be3374e8U, 0xbe05148cbe26065cU, 0xbe1bae263e45c53aU, 0xbc834cc33d0375e3U,
  0x3d1650dbbbcd4f38U, 0xbbdbf973bc6aa3aeU, 0x3cbafa6fbbcd4f38U, 0x3c5bf9733d3ccfb6U,
  0xbaeaa3aebcf1f8cbU, 0x3cdfa402bd03fc12U, 0xbd2c5034bd0226cbU, 0x3ca4fb16bce34e91U,
  0xbaaffac2bd33a551U, 0x3ca8a5a5bcb3a551U, 0xbd147b943d28a5a5U, 0x3a6aa3aebd47cf62U,
  0xbba15088bd392527U, 0xbd357a993d215088U, 0xbc83fc123c45fa1bU, 0x3d24fb16bd0226cbU,
  0xbd45fa1b3cc24f8cU, 0xbd4424d33c99fb6aU, 0x3bcd4f38bc805183U, 0x3c8051833b12a64dU,
  0x3bf94de9bd49a4aaU, 0xbb6aa3aebce34e91U, 0xbd1f7b40bd1bd0b2U, 0x3c8b512f3d28a5a5U,
  0x3d2c5034bc4d4f38U, 0xbd05d1593cee4e3dU, 0xbd5fa402bce6f91fU, 0x3ba150883caffac2U,
  0x3c03fc123c28a5a5U, 0xbc03fc12bd6523d8U, 0x3c805183bd0d2677U, 0xbbdbf9733c4d4f38U,
  0xbbdbf9733d07a6a1U, 0xbcd84ee43aaffac2U, 0xbcac5034U, 0xbc634e91bd26d05eU,
  0x3c794de9bd3ccfb6U, 0xbceaa3ae3beaa3aeU, 0xbd3ea4fdbc28a5a5U, 0x3c54a456bd24fb16U,
  0xbd584ee4bc8b512fU, 0xbd4424d3bd33a551U, 0xbc28a5a53c87a6a1U, 0x3c54a4563caffac2U,
  0x3cb3a551bcf5a35aU, 0x3c45fa1b3ce6f91fU, 0xbd617949bbf94de9U, 0xbd3afa6f3d1f7b40U,
  0xbd0d2677bb6aa3aeU, 0xbd2a7aec3c54a456U, 0x3c9650dbbd4f2480U, 0x3d2ffac2bd147b94U,
  0x3d1bd0b2bd19fb6aU, 0x3c45fa1bU, 0xbcd84ee4bb6aa3aeU, 0x3d03fc123ce34e91U,
  0xbcb3a551bc9650dbU, 0x3c71f8cbbcbafa6fU, 0xbca4fb163c03fc12U, 0x3c71f8cbbceaa3aeU,
  0xbc3ea4fdbd097be8U, 0x3cf94de9bd215088U, 0xbb92a64dbcee4e3dU, 0x3beaa3ae3d33a551U,
  0xbcaffac2bcbea4fdU, 0x3c6aa3aebcee4e3dU, 0xbd68ce67bc9da5f9U, 0xbd1da5f93c19fb6aU,
  0xbc83fc12bc71f8cbU, 0xbd3ea4fd3d05d159U, 0x3d0d2677baeaa3aeU, 0x3c54a456bd47cf62U,
  0x3b83fc123d2e257bU, 0xbd1650dbbc54a456U, 0x3d0efbbebd4424d3U, 0xbc634e91bc794de9U,
  0x3b2ffac23c03fc12U, 0x3beaa3aebcc9a4aaU, 0xbd28a5a53d31d00aU, 0xbd2325cf3cdfa402U,
  0x3b83fc123c374fe0U, 0xbb4d4f38baaffac2U, 0xbceaa3aebd52cf0eU, 0x3d097be8bc99fb6aU,
  0x39eaa3aebc99fb6aU, 0xbca8a5a5bcbea4fdU, 0xbd2c50343c8efbbeU, 0x3c87a6a13d357a99U,
  0x3d10d105bcbea4fdU, 0x3cb3a551bd1bd0b2U, 0xbbcd4f383ca8a5a5U, 0xbcc5fa1b3d0d2677U,
  0x3d24fb163cc9a4aaU, 0xbb12a64d3cd4a456U, 0x3d0efbbebbf94de9U, 0x3cb74fe0bc12a64dU,
  0xbd1f7b40bd52cf0eU, 0xbb6aa3aebd374fe0U, 0x3c0b512fbc12a64dU, 0xbcbafa6f3d4424d3U,
  0xbc374fe03c12a64dU, 0xbc12a64d3d215088U, 0x3d215088bce34e91U, 0x3d4f2480bcbea4fdU,
  0xbd4b79f1bd0efbbeU, 0x3cc24f8c3d47cf62U, 0xbd3ccfb63b12a64dU, 0xbc83fc123d47cf62U,
  0x3cc5fa1b39eaa3aeU, 0x3cfcf8783cac5034U, 0x3cac5034bd47cf62U, 0xbd4d4f383d26d05eU,
  0xbd52cf0ebcf5a35aU, 0xbbf94de9bcbafa6fU, 0xbc28a5a5bc87a6a1U, 0xbca150883d31d00aU,
  0xbc2150883d215088U, 0xbc54a4563d005183U, 0x3ce34e91bc6aa3aeU, 0xbd19fb6abcc24f8cU,
  0xbd45fa1bbceaa3aeU, 0x3c4d4f38bd0efbbeU, 0x3c794de93aaffac2U, 0xbcd4a456bc794de9U,
  0xbcf5a35abc87a6a1U, 0xbc794de9bd182623U, 0xbcd84ee4bd4f2480U, 0x3b2ffac2bd5fa402U,
  0x3c03fc12bbdbf973U, 0xbd4f24803ce34e91U, 0xbd1f7b403c634e91U, 0x3cc24f8c3cbafa6fU,
  0xbd50f9c73cfcf878U, 0xbcd4a456bd07a6a1U, 0xbd407a45bd097be8U, 0x3d4b79f1bd5bf973U,
  0x3ceaa3ae3d24fb16U, 0xbd3ea4fd3d4d4f38U, 0xbcaffac2bca4fb16U, 0xbbbea4fd3beaa3aeU,
  0xbb12a64d3b4d4f38U, 0xbd56799dbb4d4f38U, 0xbc4d4f383ce6f91fU, 0x3c03fc12bd3ccfb6U,
  0xbd182623bcbea4fdU, 0xbc5bf973bc8b512fU, 0x3bf94de9bd31d00aU, 0x3c4d4f38bbcd4f38U,
  0xbd617949bd26d05eU, 0xbd3925273c8efbbeU, 0xbd07a6a13c5bf973U, 0xbd2150883d10d105U,
  0xbcbea4fdbd26d05eU, 0x3b2ffac2bd374fe0U, 0x3c19fb6a3c28a5a5U, 0x3d19fb6abcc24f8cU,
  0xbd0226cb3c794de9U, 0xbcee4e3d3d24fb16U, 0x3d10d105bba15088U, 0xbcdfa402bc28a5a5U,
  0x3d12a64dU, 0x3d005183bb6aa3aeU, 0xbc99fb6abd24fb16U, 0x39eaa3ae3d03fc12U,
  0xbd5fa402bcdbf973U, 0xbca8a5a5bd2ffac2U, 0xbd4424d3bcb74fe0U, 0xbd3925273c805183U,
  0x3cfcf878bd4424d3U, 0xbb12a64d3c28a5a5U, 0xba6aa3ae3d1da5f9U, 0x3b4d4f383c87a6a1U,
  0xbd24fb16bd6523d8U, 0xbd374fe03c374fe0U, 0xbd24fb16bd33a551U, 0xbd2c50343d357a99U,
  0xbcd0f9c73cd4a456U, 0xbbeaa3ae3cee4e3dU, 0xbc45fa1bbbeaa3aeU, 0x39eaa3ae3cbafa6fU,
  0x3d10d105bd4b79f1U, 0x3d2e257b3ca4fb16U, 0x3cc5fa1b3cc5fa1bU, 0x3b6aa3ae3ce34e91U,
  0xbc8051833d2a7aecU, 0xbcc9a4aabc03fc12U, 0x3c805183bbeaa3aeU, 0x3d05d1593c8efbbeU,
  0x3cac50343d2325cfU, 0xbc12a64dbc87a6a1U, 0xbc28a5a5bcb74fe0U, 0xbb2ffac2bce6f91fU,
  0xbd3ea4fdbd0efbbeU, 0x3bbea4fd3c215088U, 0xbc92a64d3d24fb16U, 0x3cb3a5513d45fa1bU,
  0x3d2ffac23beaa3aeU, 0xbd617949bceaa3aeU, 0xbd28a5a5bcb74fe0U, 0xbd45fa1bbd26d05eU,
  0x3c634e913cc24f8cU, 0xbd45fa1bbcaffac2U, 0x3aeaa3ae3d10d105U, 0xbd634e91bd392527U,
  0x3d147b943cc5fa1bU, 0xbd407a453d0b512fU, 0x3d2325cfbd03fc12U, 0x3aeaa3aebd1da5f9U,
  0x3c5bf973bc45fa1bU, 0xbd3ea4fdbca4fb16U, 0x3c8efbbebd31d00aU, 0xbd12a64dbb4d4f38U,
  0x3baffac23c71f8cbU, 0xbd03fc12bb83fc12U, 0x3cc9a4aabd47cf62U, 0x3c8efbbebd1f7b40U,
  0xbcc9a4aabc45fa1bU, 0x3c71f8cb3c3ea4fdU, 0xbd097be83bf94de9U, 0x3aaffac2bc92a64dU,
  0xbcc24f8c3b83fc12U, 0xbc794de93c87a6a1U, 0x3cf5a35a3d0b512fU, 0x3c92a64d3d1da5f9U,
  0x39eaa3ae3d05d159U, 0xbd3afa6fbcb74fe0U, 0x3ce34e913a6aa3aeU, 0xbaaffac2bd1da5f9U,
  0x3bf94de93c12a64dU, 0xbd0226cbbd617949U, 0x39eaa3aebd07a6a1U, 0xbcdbf973bc6aa3aeU,
  0xbd4b79f13c4d4f38U, 0xbcbafa6f3cc9a4aaU, 0xbbeaa3ae3cf1f8cbU, 0xbd374fe0bc805183U,
  0xbd2ffac23d0226cbU, 0xbb4d4f38bd2325cfU, 0x3ca4fb163d3ccfb6U, 0x3d0b512fbd50f9c7U,
  0x3c83fc12bd5bf973U, 0xbd2150883c5bf973U, 0xbd31d00abcd84ee4U, 0x3d12a64dbba15088U,
  0xbd2a7aec3ce34e91U, 0x3d2a7aecbd182623U, 0x3cdbf973b9eaa3aeU, 0x3b92a64d3ce6f91fU,
  0xbd0b512fbc8b512fU, 0x3bdbf9733b2ffac2U, 0x3c71f8cb3b12a64dU, 0xbd4d4f383c215088U,
  0x3c3ea4fd3d005183U, 0x3c2ffac23d0226cbU, 0xbd5bf9733c3ea4fdU, 0xbc71f8cb3bbea4fdU,
  0x3c92a64d3d1650dbU, 0x3ccd4f38bbf94de9U, 0xbca15088bd5a242cU, 0xbb2ffac2bc71f8cbU,
  0x3c9da5f93d097be8U, 0x3d005183bd1da5f9U, 0x3c92a64dbc03fc12U, 0x3cb3a551bd3ccfb6U,
  0xbce34e91bbbea4fdU, 0xbd5dceba3d357a99U, 0xbbcd4f38bd1bd0b2U, 0xbcf94de93d2e257bU,
  0x3c19fb6a3c8efbbeU, 0x3bcd4f38bcc24f8cU, 0x3ca8a5a53d19fb6aU, 0xbb92a64dbc2ffac2U,
  0xbc6aa3aebd3ea4fdU, 0xbceaa3ae3d3ea4fdU, 0xbd24fb163c6aa3aeU, 0xbcee4e3d3d4b79f1U,
  0x3cac5034bd4424d3U, 0x3c87a6a1bd54a456U, 0x3cbea4fd3d407a45U, 0xbd0226cbbd0b512fU,
  0x3b4d4f38bc4d4f38U, 0xbd03fc123d005183U, 0x3cf94de93cf1f8cbU, 0xbd5fa402bcfcf878U,
  0xbaeaa3aebce6f91fU, 0x3baffac23c99fb6aU, 0xbd5fa402bd0d2677U, 0xbcdfa402bc805183U,
  0xbc9650db3cf1f8cbU, 0x3c45fa1b3aeaa3aeU, 0xbcc5fa1bbc87a6a1U, 0xbd584ee43b83fc12U,
  0x3c5bf9733c215088U, 0xbd5fa4023d2325cfU, 0xbd4424d3bc92a64dU, 0x3ca8a5a53c92a64dU,
  0xbd19fb6a3d357a99U, 0xbcee4e3d3c8b512fU, 0x3d1f7b403d07a6a1U, 0x3cbafa6fbcc24f8cU,
  0xbd1da5f93c2ffac2U, 0x3c6aa3ae3c8b512fU, 0x3c794de9bb4d4f38U, 0x3ca15088bcfcf878U,
  0xbd1bd0b23d147b94U, 0xbd5fa4023cd84ee4U, 0xbd147b94bccd4f38U, 0x3d0226cbbc45fa1bU,
  0xbd005183bbdbf973U, 0x3c2ffac2bc2ffac2U, 0xbd1da5f9bd4424d3U, 0xbd07a6a1bd56799dU,
  0xbd56799d3c71f8cbU, 0xbc374fe03c12a64dU, 0xbd28a5a5bb4d4f38U, 0x3bbea4fd3d0efbbeU,
  0xbc3ea4fd3c8efbbeU, 0xbd6523d8bc794de9U, 0x3bcd4f38bc28a5a5U, 0x3bbea4fd3d31d00aU,
  0x3c8051833bbea4fdU, 0x3c8051833d2ffac2U, 0xbce6f91f3caffac2U, 0xbd56799d3caffac2U,
  0xbd1bd0b2bc634e91U, 0xbd392527bc54a456U, 0xbc71f8cb3d33a551U, 0xbaaffac2bcbafa6fU,
  0xbd49a4aabcc9a4aaU, 0x3d2150883c794de9U, 0xbc374fe0bd28a5a5U, 0xbd634e913d1f7b40U,
  0xbc9650db3c12a64dU, 0x3cdbf9733c54a456U, 0x3d357a993d33a551U, 0xbd407a453c9da5f9U,
  0x3d357a99bcfcf878U, 0xbd0226cb3d2325cfU, 0x3d28a5a53c9650dbU, 0x3ce6f91fbd03fc12U,
  0x3c4d4f38bd2ffac2U, 0x3c8b512fbceaa3aeU, 0xbc3ea4fd3d0b512fU, 0x3c87a6a1bc374fe0U,
  0x3c87a6a1bd50f9c7U, 0xbc9650dbbb83fc12U, 0xbc99fb6abc45fa1bU, 0x3d33a5513d215088U,
  0xbd0b512f3b4d4f38U, 0xbcdbf973bd005183U, 0x3c2ffac2bd4b79f1U, 0xbd005183bb83fc12U,
  0xbd2ffac2bd3afa6fU, 0xbc83fc123c805183U, 0x3d2325cfbc54a456U, 0x3cb74fe03c83fc12U,
  0x3c9da5f9bcbafa6fU, 0xbd0efbbebd12a64dU, 0xbcdbf9733d1bd0b2U, 0xbcee4e3d3c3ea4fdU,
  0xbceaa3ae3b4d4f38U, 0xbbdbf973bceaa3aeU, 0xbb6aa3aebd07a6a1U, 0xbcd0f9c7ba6aa3aeU,
  0xbd147b943c4d4f38U, 0x3cbafa6fbcc9a4aaU, 0xbc6aa3aebd07a6a1U, 0x3c12a64d3d1da5f9U,
  0xbc54a456bc45fa1bU, 0xbd005183bca15088U, 0xbd56799dbc87a6a1U, 0x3ca4fb163c215088U,
  0xbd07a6a13c03fc12U, 0x3aeaa3ae3d05d159U, 0xbbaffac23c9da5f9U, 0xbb12a64d3c45fa1bU,
  0x3d097be83aeaa3aeU, 0x3ba15088bcac5034U, 0xbcf5a35abc2ffac2U, 0xbd66f91f3b12a64dU,
  0xbc12a64d3d182623U, 0xbd3ccfb6bb2ffac2U, 0xbd374fe0bb92a64dU, 0x3c99fb6a3ceaa3aeU,
  0xbd05d159bd374fe0U, 0xbd1bd0b2bd1650dbU, 0x3cf5a35aba6aa3aeU, 0xbc634e91bc805183U,
  0xbccd4f38bd357a99U, 0xbb83fc12bb12a64dU, 0x3c28a5a53c5bf973U, 0x3b6aa3aebc45fa1bU,
  0x3baffac23d357a99U, 0xbd3ea4fdbca15088U, 0x3c9da5f93cfcf878U, 0x3ca8a5a53d4f2480U,
  0x3d19fb6a3d1650dbU, 0xbd407a45bd3ea4fdU, 0x3cdbf9733ce34e91U, 0x3d31d00abc4d4f38U,
  0x3c8b512f3d1da5f9U, 0xbc54a4563b6aa3aeU, 0xbceaa3ae3cf5a35aU, 0x3bcd4f38bd0d2677U,
  0x3c28a5a53d0b512fU, 0x3c28a5a5bc215088U, 0xbc215088bd357a99U, 0xbc8efbbebd10d105U,
  0x3bf94de93b12a64dU, 0x3d215088bbeaa3aeU, 0xbc8b512fbd3afa6fU, 0xbd1826233cb74fe0U,
  0xbd097be8bccd4f38U, 0xbc71f8cb3c3ea4fdU, 0xbcaffac2bcf1f8cbU, 0x3c0b512fbc71f8cbU,
  0xbd4d4f38bc87a6a1U, 0x3c8b512f3ca4fb16U, 0x3c5bf9733d005183U, 0x3c99fb6a3cd0f9c7U,
  0xbd24fb163c99fb6aU, 0x3d097be839eaa3aeU, 0x3b4d4f38bc9650dbU, 0xbd1f7b40bd3afa6fU,
  0xbcf1f8cb3c92a64dU, 0xbcf1f8cb3cac5034U, 0xbd47cf623c8b512fU, 0x3b6aa3ae3c9da5f9U,
  0xbbaffac2bbeaa3aeU, 0xbbaffac23cdbf973U, 0x3c83fc123d374fe0U, 0x3d0efbbe3aaffac2U,
  0xbd56799dbd47cf62U, 0xbd2150883b2ffac2U, 0xbcd0f9c7bc28a5a5U, 0xbc794de9b9eaa3aeU,
  0x3c92a64d3c83fc12U, 0xbd4b79f1bcd0f9c7U, 0xbc9da5f93d182623U, 0x3d147b943aeaa3aeU,
  0xbd5dcebabc54a456U, 0x3c03fc12bc28a5a5U, 0x3b6aa3ae3ceaa3aeU, 0xbd2a7aecbbbea4fdU,
  0xbd097be8ba6aa3aeU, 0xbd147b94bd5dcebaU, 0xbd24fb1600000000U, 0x3d147b94bd0efbbeU,
  0x3c92a64d3cd84ee4U, 0xbaeaa3aebbbea4fdU, 0xbc8efbbe3cbafa6fU, 0x3b6aa3ae3d03fc12U,
  0xbd005183bcdbf973U, 0x3bcd4f3800000000U, 0x3b4d4f38bd28a5a5U, 0xbcb3a551bd097be8U,
  0x3cf1f8cbbd19fb6aU, 0x3d147b943cf5a35aU, 0xbca8a5a53d24fb16U, 0x3d097be83b2ffac2U,
  0xbd182623bd0b512fU, 0x39eaa3aebb2ffac2U, 0xbd49a4aa3c28a5a5U, 0x3b83fc12bc805183U,
  0x3cdfa4023c215088U, 0xbc0b512fbc9650dbU, 0x3d2c5034bd1da5f9U, 0x3d0226cbbaaffac2U,
  0xbd215088bd407a45U, 0x3c3ea4fd3a6aa3aeU, 0x3a6aa3aebc2ffac2U, 0xbc83fc12bd31d00aU,
  0x3d12a64dbd56799dU, 0xbb12a64dbd392527U, 0xbcdbf973bc19fb6aU, 0x3c6aa3aebd03fc12U,
  0x3cbea4fdbd45fa1bU, 0x3cee4e3dbd617949U, 0xbba15088bceaa3aeU, 0x3b4d4f38bceaa3aeU,
  0x3c8efbbe3d19fb6aU, 0xbb83fc123d4d4f38U, 0xbd357a993c6aa3aeU, 0xbcd84ee43aaffac2U,
  0x3c374fe0bcaffac2U, 0xbcc24f8cU, 0xbd05d159bca15088U, 0x3c8efbbebcf5a35aU,
  0x3cbea4fdbd56799dU, 0xbc2ffac23c6aa3aeU, 0xbd52cf0ebd66f91fU, 0x3d357a993d097be8U,
  0xbcf94de9bd28a5a5U, 0xbc45fa1b3ccd4f38U, 0xbc99fb6a3d49a4aaU, 0x3d12a64d3d1650dbU,
  0x3d28a5a5bc87a6a1U, 0x3c87a6a1bd49a4aaU, 0xbd584ee4bbeaa3aeU, 0xbd24fb16bd4f2480U,
  0xbcbafa6f3d182623U, 0x3d24fb163bdbf973U, 0x3c45fa1bbd26d05eU, 0x3c794de9bd2325cfU,
  0xbd0d26773ca4fb16U, 0xbc54a4563d357a99U, 0x3b92a64dbc6aa3aeU, 0xbcaffac23c3ea4fdU,
  0x3c28a5a53b12a64dU, 0xbd147b943ca4fb16U, 0xbc8051833cac5034U, 0x3c634e913cdfa402U,
  0xbccd4f383c54a456U, 0x3cb74fe0bd07a6a1U, 0x3d07a6a13d0efbbeU, 0x3c8b512fbb12a64dU,
  0x3d33a55139eaa3aeU, 0x3d24fb163d1f7b40U, 0x3b92a64dbcd84ee4U, 0x0U,
  0x3c0b512fbb6aa3aeU, 0x3c8b512fbceaa3aeU, 0xbcc5fa1bbc805183U, 0xb9eaa3ae3cbea4fdU,
  0x3d374fe0bd47cf62U, 0x3c19fb6abd28a5a5U, 0x3cac5034bca8a5a5U, 0x3c634e913d0226cbU,
  0x3c2ffac2bc805183U, 0x3b6aa3aebd147b94U, 0xbc8efbbebbf94de9U, 0xbd2ffac23d26d05eU,
  0x3c794de93aaffac2U, 0x3c2150883c2ffac2U, 0x3d05d159bcc9a4aaU, 0x3d424f8c3d26d05eU,
  0x3d31d00abd33a551U, 0x3d05d159bd12a64dU, 0x3c8051833baffac2U, 0xbcdbf973bd2ffac2U,
  0xbd407a45bd28a5a5U, 0xbbbea4fd3cb3a551U, 0x3c5bf9733bbea4fdU, 0x3d0d26773cf5a35aU,
  0x3cb3a551bd5fa402U, 0xbd147b943d26d05eU, 0x3ceaa3aebc0b512fU, 0xbc87a6a13cc24f8cU,
  0xbc9650dbbcf5a35aU, 0x3d0efbbe3aeaa3aeU, 0xbd10d105bd10d105U, 0x3c3ea4fd3cd4a456U,
  0xbcbea4fdbc99fb6aU, 0xbd4d4f383c19fb6aU, 0x3c8b512fbd68ce67U, 0x3cc24f8c3d19fb6aU,
  0xbc8efbbebb6aa3aeU, 0xbd45fa1bbc45fa1bU, 0x3d1bd0b23d3afa6fU, 0xbcc24f8cbd374fe0U,
  0x3d2c50343c5bf973U, 0x3d0b512fbc9da5f9U, 0x3d097be8bbf94de9U, 0x3d2e257b3d374fe0U,
  0xbaaffac23d10d105U, 0x3d26d05e3c9650dbU, 0x3cbea4fd3d28a5a5U, 0x3bbea4fd3cdfa402U,
  0x3b4d4f383b6aa3aeU, 0xbb12a64d3cf5a35aU, 0xbd4b79f1bd4b79f1U, 0xbd5a242cbcdfa402U,
  0xbd0226cb3b2ffac2U, 0xbd2a7aecbb2ffac2U, 0x3ccd4f38ba6aa3aeU, 0xbd45fa1bbc28a5a5U,
  0x3cbafa6f3c9650dbU, 0x3cf1f8cb3d147b94U, 0x3d1da5f93c28a5a5U, 0xbcbea4fdbc99fb6aU,
  0xbceaa3ae3d03fc12U, 0xbd1bd0b2bd2325cfU, 0xbd3afa6fbc99fb6aU, 0xbcaffac2bcd84ee4U,
  0x3b12a64d3d0b512fU, 0x3c45fa1b3d1bd0b2U, 0xbd3ccfb63d12a64dU, 0x3b6aa3aebc3ea4fdU,
  0x3c805183bd66f91fU, 0xbd4424d3bc5bf973U, 0x3d24fb16bd1650dbU, 0xb9eaa3aebd26d05eU,
  0xbd1826233cf1f8cbU, 0xbc71f8cbbc99fb6aU, 0xbd3ccfb63ce34e91U, 0x3c83fc12bc5bf973U,
  0xbd0226cbbd49a4aaU, 0x3ce34e91bd66f91fU, 0x3cd0f9c7bd2c5034U, 0x3cdbf973bd52cf0eU,
  0xbd5fa402bd584ee4U, 0x3d2c50343c12a64dU, 0x3bbea4fd3c805183U, 0xbd5fa402bd3ea4fdU,
  0xbd07a6a13beaa3aeU, 0x3c374fe03ceaa3aeU, 0xbbf94de9bc71f8cbU, 0x3ce6f91fbd407a45U,
  0x3cd0f9c7bd52cf0eU, 0x3d05d1593d1bd0b2U, 0xbba15088bb92a64dU, 0x3cfcf8783d097be8U,
  0xbd1650dbbc9650dbU, 0x3c634e913d1f7b40U, 0xbd5bf973ba6aa3aeU, 0xbd2c50343c45fa1bU,
  0x3c634e913cb74fe0U, 0x3c83fc12bbdbf973U, 0x3d182623bd66f91fU, 0xbcdbf97339eaa3aeU,
  0x3beaa3ae3d2ffac2U, 0xbd407a453cf94de9U, 0xbceaa3ae3baffac2U, 0xbc28a5a53d05d159U,
  0xbd4d4f383a6aa3aeU, 0xbbbea4fd3cf5a35aU, 0x3c12a64d3c45fa1bU, 0xbd2e257bbd4424d3U,
  0x3ce34e91bbaffac2U, 0x3c794de93ca15088U, 0xbccd4f38bd1bd0b2U, 0xbd4b79f1bd31d00aU,
  0x3c5bf973bd0226cbU, 0x3c87a6a1bcc9a4aaU, 0xbd10d1053c92a64dU, 0xbcbea4fd3cac5034U,
  0xbd1bd0b23cd0f9c7U, 0x3cdfa402bc71f8cbU, 0xbcd0f9c73cdbf973U, 0xbc9da5f93c12a64dU,
  0x3bdbf9733d2a7aecU, 0xbd407a453c19fb6aU, 0xbd33a551bbeaa3aeU, 0xbca150883d097be8U,
  0xbceaa3aebc2ffac2U, 0x3b92a64d3c12a64dU, 0x3c45fa1b3d47cf62U, 0x3c99fb6abd5fa402U,
  0xbd407a45bd215088U, 0x3ca150883bcd4f38U, 0xbc3ea4fd3d0b512fU, 0xbb92a64d3d357a99U,
  0xbce6f91f3d2325cfU, 0xbd3ccfb63d2e257bU, 0xbd2e257bbcd4a456U, 0xbbdbf9733bbea4fdU,
  0xbd24fb16bd24fb16U, 0xbba15088bb83fc12U, 0x3ce34e91bd357a99U, 0x3d1f7b40bd1f7b40U,
  0xbc634e91bd2325cfU, 0x3b4d4f383cf1f8cbU, 0xbbf94de9bcf94de9U, 0x3c45fa1bbd49a4aaU,
  0x3d05d159bbbea4fdU, 0xbc12a64dbd357a99U, 0xbd5dcebabd05d159U, 0x3d357a993c2ffac2U,
  0xbd19fb6abbdbf973U, 0x3bf94de93cbea4fdU, 0xbc99fb6abd1bd0b2U, 0x3ba150883c45fa1bU,
  0xbd097be83d0226cbU, 0x3c215088bd1650dbU, 0xbd4b79f13c9da5f9U, 0xbbbea4fdbc92a64dU,
  0x3d33a5513cb74fe0U, 0xbd1650db3cf1f8cbU, 0xbce6f91f3d357a99U, 0x3d215088bd5dcebaU,
  0xbcee4e3dbbeaa3aeU, 0xbc6aa3aebcac5034U, 0xbd182623bcbafa6fU, 0x3cd0f9c73c794de9U,
  0xbcc24f8c3b12a64dU, 0xbd49a4aa3a6aa3aeU, 0xbd1f7b40bc6aa3aeU, 0xbc92a64dbd2ffac2U,
  0xbcac5034bc5bf973U, 0xbd357a99bd28a5a5U, 0xbd24fb163cac5034U, 0xbd357a99bcf1f8cbU,
  0xbcb3a5513d2325cfU, 0x3c794de9bb2ffac2U, 0x3d31d00a3d2c5034U, 0x3cf94de93c2ffac2U,
  0xbcdfa402bd2e257bU, 0x3c5bf9733d47cf62U, 0xbd5fa4023d05d159U, 0xbc19fb6a3d2a7aecU,
  0x3d357a993d374fe0U, 0x3c28a5a5bc8efbbeU, 0xbc2ffac2bcd0f9c7U, 0x3c92a64d3bcd4f38U,
  0xbcc24f8c3d0d2677U, 0x3bf94de9bc71f8cbU, 0x3c634e913c99fb6aU, 0xbc4d4f383c45fa1bU,
  0x3bdbf97300000000U, 0xbd005183bcc24f8cU, 0x3c805183bc2ffac2U, 0xbd26d05ebc03fc12U,
  0xbd6523d8bbbea4fdU, 0x3c2150883caffac2U, 0xbd4f24803d2a7aecU, 0xbc9da5f9bd2ffac2U,
  0x3d1bd0b23ca15088U, 0xbcdbf973bd52cf0eU, 0x3beaa3aebd0d2677U, 0xbd2a7aecbd0b512fU,
  0xbd617949bd28a5a5U, 0x3ce34e91U, 0x3c54a456bd4f2480U, 0xbcc24f8c3cf94de9U,
  0x3d19fb6a3cf94de9U, 0x3c87a6a1bc28a5a5U, 0x3cd4a4563d33a551U, 0xbcb74fe0bcd0f9c7U,
  0x3b12a64dbd49a4aaU, 0x3cdfa4023c0b512fU, 0x3cdfa4023c634e91U, 0x3c634e91bb6aa3aeU,
  0x3d05d1593ce34e91U, 0xbd52cf0e3beaa3aeU, 0x3c9da5f93c45fa1bU, 0x3d24fb16bd2a7aecU,
  0xbd07a6a1bd12a64dU, 0xbcbafa6fbc03fc12U, 0xbd1650db3d07a6a1U, 0xbd6523d8bc6aa3aeU,
  0x3ceaa3aebcd4a456U, 0xbca150883cbafa6fU, 0xbca4fb16bd2e257bU, 0x3cc9a4aa3ce6f91fU,
  0xbcfcf8783c215088U, 0x3c794de9bcb74fe0U, 0x3d2a7aecbc8efbbeU, 0xbc794de9bce6f91fU,
  0x3c3ea4fd3d2ffac2U, 0xbb92a64d3d2e257bU, 0xbd357a99bd374fe0U, 0x3d2325cf3c45fa1bU,
  0x3cb74fe03c87a6a1U, 0xbc794de93d4f2480U, 0x3c805183bc83fc12U, 0xbd54a4563b83fc12U,
  0xbcc5fa1bbd1650dbU, 0x3c19fb6abd4b79f1U, 0xbc83fc12bd0efbbeU, 0xbd1bd0b23d2a7aecU,
  0x3c3ea4fdbd1bd0b2U, 0xbd4d4f38bc8b512fU, 0x3d1da5f93bcd4f38U, 0x3d0d26773d407a45U,
  0xbd2ffac2bd05d159U, 0xbcc5fa1bbbbea4fdU, 0xbd05d1593c28a5a5U, 0x3b6aa3aebd392527U,
  0xbc99fb6a3b12a64dU, 0x3d1650dbbd374fe0U, 0x3cac50343d0226cbU, 0x3cc5fa1b3d0b512fU,
  0xbc794de93d374fe0U, 0xbbcd4f383a6aa3aeU, 0x3c45fa1bbd147b94U, 0x3d3afa6f3bbea4fdU,
  0xbc794de9bc45fa1bU, 0xbd2325cf3ccd4f38U, 0x3d26d05ebb83fc12U, 0x3cd0f9c7bd005183U,
  0x3baffac2bb12a64dU, 0x3cdfa402bcc24f8cU, 0x3ce34e913d0d2677U, 0xbcdfa402bc87a6a1U,
  0xbd12a64d3c28a5a5U, 0xbb12a64dbcd4a456U, 0xbd4b79f1bb12a64dU, 0x3cbafa6f3d05d159U,
  0xbc03fc12bc5bf973U, 0xbd50f9c73c0b512fU, 0xbcaffac2bd26d05eU, 0xbd4424d3bd52cf0eU,
  0x3cb74fe0bd584ee4U, 0x3d0051833d407a45U, 0x3cc5fa1b3cfcf878U, 0x3d1bd0b2bcfcf878U,
  0xbcaffac2bc03fc12U, 0x3d12a64dbb12a64dU, 0xbcee4e3d3ca15088U, 0xbb4d4f38bcdfa402U,
  0x3d374fe03cd84ee4U, 0x3d182623bc87a6a1U, 0x3cc24f8cbd0226cbU, 0x3c4d4f383aeaa3aeU,
  0xbd0d2677bd4f2480U, 0xba6aa3aebb83fc12U, 0xbbaffac23c0b512fU, 0x3ca8a5a53c5bf973U,
  0x3cf5a35a3c4d4f38U, 0xbbf94de9baeaa3aeU, 0x39eaa3aebc0b512fU, 0x3baffac2bd31d00aU,
  0xbbcd4f38b9eaa3aeU, 0xbd5dceba3caffac2U, 0x3c5bf9733d24fb16U, 0x3d0efbbe3ca4fb16U,
  0x3d1bd0b23cc24f8cU, 0xbd1f7b40bc4d4f38U, 0x3d0d26773c28a5a5U, 0x3b6aa3aebca15088U,
  0xbd2325cf3cfcf878U, 0xbc805183bd2a7aecU, 0x3d357a99bd31d00aU, 0xbb12a64dbd392527U,
  0x3cd84ee4bbcd4f38U, 0xbd33a5513c54a456U, 0xbd50f9c7bce34e91U, 0xbd49a4aa3d2e257bU,
  0x3d0b512fbcee4e3dU, 0xbd10d105bd357a99U, 0x3c2ffac2bd45fa1bU, 0xbc215088bd1f7b40U,
  0xbd26d05ebd33a551U, 0x3cd4a456bd147b94U, 0xbc45fa1b3d374fe0U, 0xbc9650dbbc805183U,
  0x3c8b512fbcb74fe0U, 0x3c03fc12bcee4e3dU, 0xbd0226cb3d1650dbU, 0x3cee4e3d3ca15088U,
  0xbc5bf9733c71f8cbU, 0xbc4d4f383d2325cfU, 0xbd2c5034bcac5034U, 0xbd1826233d0d2677U,
  0x3c4d4f383c6aa3aeU, 0x3d374fe0bd2e257bU, 0xbd2c5034bd45fa1bU, 0xbccd4f383ce34e91U,
  0xbd10d1053c92a64dU, 0x3c92a64dbd2325cfU, 0xbcf5a35abd52cf0eU, 0xbcbafa6f3d392527U,
  0x3cb3a5513a6aa3aeU, 0x3d0051833d10d105U, 0xbaeaa3ae3d49a4aaU, 0xbbaffac23caffac2U,
  0xbce6f91f3d07a6a1U, 0xbcb3a5513ca8a5a5U, 0xbbf94de9bc45fa1bU, 0xbc6aa3ae3cbafa6fU,
  0x3b6aa3ae3cd4a456U, 0x3cdfa402bd24fb16U, 0xbcd84ee4bca15088U, 0x3d0051833d005183U,
  0x3ca150883d1f7b40U, 0x3c19fb6a3d634e91U, 0xbd3925273c83fc12U, 0xbcb74fe0bce34e91U,
  0xbcee4e3d3bbea4fdU, 0x3b6aa3aebc54a456U, 0xbc5bf973bc87a6a1U, 0xbd4d4f38bcaffac2U,
  0x3bbea4fdbd1bd0b2U, 0x3c634e91bd2c5034U, 0xbcaffac23d24fb16U, 0xbd10d1053d424f8cU,
  0x3ccd4f38bcf1f8cbU, 0xbcdbf973bc83fc12U, 0xbb83fc12bc83fc12U, 0x3d24fb163cf1f8cbU,
  0xbd54a4563c805183U, 0x3d2e257b3cbea4fdU, 0x3cac50343ca15088U, 0x3c83fc123c805183U,
  0xbb4d4f38bd182623U, 0x3d24fb163c8b512fU, 0x3ba150883cbea4fdU, 0x3b83fc12bc215088U,
  0x3d2325cf3c805183U, 0xbc3ea4fd3c9da5f9U, 0x3a6aa3ae3d147b94U, 0xbc3ea4fdbcb3a551U,
  0xbd49a4aa3d1f7b40U, 0x3c794de9bc92a64dU, 0x3c83fc12bd3ccfb6U, 0x3d47cf62bc87a6a1U,
  0x3c45fa1bbcc24f8cU, 0xbd1f7b40bc8b512fU, 0xbd424f8cbd54a456U, 0xbc6aa3aebb83fc12U,
  0xbb6aa3ae3d215088U, 0xbc0b512fbd4f2480U, 0x3caffac23d45fa1bU, 0xbc45fa1b3bf94de9U,
  0xb9eaa3ae3d26d05eU, 0x3ceaa3ae3b6aa3aeU, 0x3d0d2677bb92a64dU, 0x3d1650dbbd1da5f9U,
  0xbd4f24803d0b512fU, 0x3ccd4f38baeaa3aeU, 0xbc0b512fbc19fb6aU, 0xbca4fb16bd03fc12U,
  0xbc9da5f9bc12a64dU, 0x3c9650dbbcaffac2U, 0x3ccd4f38bd1da5f9U, 0xbcbafa6f3d28a5a5U,
  0x3d2a7aecbc5bf973U, 0x3cd0f9c7bd03fc12U, 0x3d24fb163aaffac2U, 0x3d424f8cbd3ccfb6U,
  0xbd10d105bc28a5a5U, 0xbd1826233c215088U, 0x3d097be8bce6f91fU, 0x3baffac23d3afa6fU,
  0xbd634e91bcb74fe0U, 0x3c12a64dbd2ffac2U, 0xbca4fb16bd147b94U, 0x3d1826233c634e91U,
  0x3d26d05e3d1da5f9U, 0x3baffac23bbea4fdU, 0xbd50f9c73c4d4f38U, 0xbcbafa6f3d392527U,
  0x3bf94de9bccd4f38U, 0xbd1f7b40bd49a4aaU, 0xbb83fc123d2ffac2U, 0x3c99fb6abc6aa3aeU,
  0x3c87a6a13ce34e91U, 0x3d0b512fbbf94de9U, 0xbcfcf878bb12a64dU, 0xbc8efbbebc28a5a5U,
  0x3d2325cf3c87a6a1U, 0xbc45fa1b3ca4fb16U, 0x3d10d105bc99fb6aU, 0x3c5bf9733d10d105U,
  0xbc03fc123d03fc12U, 0x3cf94de9bd2c5034U, 0xbaaffac2bd4f2480U, 0xbcd0f9c7bd357a99U,
  0xbd52cf0e3d0d2677U, 0x3caffac23cd84ee4U, 0xbbcd4f383c6aa3aeU, 0x3d1826233cb74fe0U,
  0xbd4d4f383c215088U, 0x3c87a6a1baaffac2U, 0xbd45fa1b39eaa3aeU, 0x3ba150883baffac2U,
  0xbd28a5a5bd2325cfU, 0xbd2c50343cb74fe0U, 0x3aaffac23d2e257bU, 0x3a6aa3aebc8b512fU,
  0x3c8b512fbd5dcebaU, 0xbd2325cfbcdbf973U, 0xbaaffac23cf94de9U, 0xbd0d2677bcc9a4aaU,
  0xbcf1f8cb3cc9a4aaU, 0x3cc5fa1bbd4d4f38U, 0x3d26d05e3b6aa3aeU, 0x3d03fc12bc4d4f38U,
  0xbd097be83c9650dbU, 0xbcbea4fd3cdfa402U, 0x3d182623bccd4f38U, 0xbceaa3ae3c805183U,
  0xbc794de93d10d105U, 0xbd2e257b3c794de9U, 0x3cfcf8783cdfa402U, 0x3cdbf973bd47cf62U,
  0xbd31d00abce34e91U, 0x3d0b512fbd357a99U, 0x3c99fb6a3c45fa1bU, 0x3c3ea4fd3d0d2677U,
  0xbc374fe0bc3ea4fdU, 0x3d2150883d374fe0U, 0xbd33a5513cf1f8cbU, 0xbd10d1053cdfa402U,
  0xbcc24f8c3d357a99U, 0x3d005183bd3ccfb6U, 0xbd54a456bcc5fa1bU, 0x3cac5034bd2ffac2U,
  0x3b83fc12bd56799dU, 0xbd4b79f13cf94de9U, 0x3ba150883a6aa3aeU, 0x3cf5a35a3d215088U,
  0xbcdbf9733caffac2U, 0xbca4fb16bd6523d8U, 0xbcbafa6fbc9650dbU, 0xbc5bf9733c87a6a1U,
  0x3ba15088bd5a242cU, 0xbd2ffac23c3ea4fdU, 0x3c12a64d3b92a64dU, 0xbaaffac2bd4424d3U,
  0x3d147b94bd5dcebaU, 0xbd47cf623c5bf973U, 0x3ca8a5a53d097be8U, 0xbd3925273c45fa1bU,
  0x3c3ea4fd3d10d105U, 0x3c215088bd617949U, 0xbc8051833c794de9U, 0x3caffac2bc6aa3aeU,
  0x3ca8a5a53c03fc12U, 0x3cbea4fd3c71f8cbU, 0x3d19fb6a3d147b94U, 0x3c2ffac2bd12a64dU,
  0x3d2a7aec3cf1f8cbU, 0xbd0d2677bc634e91U, 0xba6aa3aebc87a6a1U, 0x3d374fe03cd0f9c7U,
  0x3c03fc12bbaffac2U, 0x3d03fc123d2e257bU, 0x3bf94de93d26d05eU, 0xbb2ffac2bc215088U,
  0xbd0b512f3c2ffac2U, 0x3d05d159bd6523d8U, 0x3ca4fb163d0226cbU, 0x3c3ea4fdbcfcf878U,
  0x3d24fb16bc0b512fU, 0xbd31d00a3c794de9U, 0xba6aa3ae3cc5fa1bU, 0xbcb3a5513cb74fe0U,
  0xbce34e91bd6523d8U, 0xbd4b79f13d10d105U, 0xbd0efbbebb83fc12U, 0xbc5bf973baaffac2U,
  0x3c4d4f383d26d05eU, 0xbccd4f383c03fc12U, 0xbc9da5f9bd097be8U, 0x3d28a5a5bbeaa3aeU,
  0xbd12a64dbc374fe0U, 0x3d1f7b40bc374fe0U, 0xbd2a7aecbd19fb6aU, 0xbcee4e3dbd0226cbU,
  0xbc8efbbebcbea4fdU, 0xbce6f91fbd05d159U, 0xbd07a6a13aaffac2U, 0xbc2150883d45fa1bU,
  0x3cbafa6fbd374fe0U, 0x3c19fb6abd54a456U, 0xbc03fc12bd4d4f38U, 0xbb4d4f383c8b512fU,
  0x3c45fa1b3c5bf973U, 0xbd357a99bd07a6a1U, 0x3cbea4fd3c6aa3aeU, 0x39eaa3ae3d05d159U,
  0xbd45fa1bbd215088U, 0x3b92a64d3c99fb6aU, 0xbd0d2677bc634e91U, 0xbd0efbbe3d182623U,
  0xbc87a6a13c215088U, 0xbd617949baeaa3aeU, 0xbd2e257bbd0efbbeU, 0x3d005183bd097be8U,
  0x3d2e257bbd49a4aaU, 0xbc215088bd1bd0b2U, 0xbcee4e3d3ceaa3aeU, 0x3cd4a456bd5fa402U,
  0x3c6aa3aebd1f7b40U, 0xbd0efbbe3cbea4fdU, 0xbd26d05ebc634e91U, 0x3c03fc12bd4f2480U,
  0xbd5dceba3c805183U, 0x3c2ffac2bcf5a35aU, 0xbcbafa6fbbeaa3aeU, 0xbd182623bc45fa1bU,
  0xbc2ffac2bd374fe0U, 0x3c28a5a53d215088U, 0xbcf1f8cbbd2e257bU, 0xbd54a4563d097be8U,
  0xbc12a64db9eaa3aeU, 0x3c9da5f9bd50f9c7U, 0x3c8b512fbca15088U, 0x3beaa3aebd617949U,
  0x3b2ffac23d0b512fU, 0xbba150883cd0f9c7U, 0x3d50f9c73cee4e3dU, 0xbcac50343d374fe0U,
  0xbc12a64dbd357a99U, 0xbd4424d33d147b94U, 0x3c9da5f93d424f8cU, 0xbd392527bcc5fa1bU,
  0xbd03fc12bd03fc12U, 0xbbeaa3aebcf94de9U, 0x3d19fb6abb6aa3aeU, 0x3cd84ee4bc03fc12U,
  0x3baffac2bd49a4aaU, 0x3c215088bcaffac2U, 0x3cbafa6fbc8b512fU, 0xbd2e257bbd2ffac2U,
  0xbcb74fe0bd1da5f9U, 0xbccd4f383d0226cbU, 0xbd47cf62bc4d4f38U, 0x3d19fb6abce34e91U,
  0x3d10d105bcdbf973U, 0xbc805183bcd84ee4U, 0xbcb3a551bba15088U, 0x3d392527bc8b512fU,
  0x3cbea4fdbd5bf973U, 0xbd49a4aabd3ea4fdU, 0x3c5bf973bd03fc12U, 0xbba150883d407a45U,
  0xbc87a6a1bcd0f9c7U, 0x3c03fc12bd6523d8U, 0xbd5fa402bcdbf973U, 0x3bdbf9733aaffac2U,
  0x3c2ffac23cc5fa1bU, 0xbd147b943d1da5f9U, 0x3d1da5f9U, 0xbd0efbbebcf5a35aU,
  0x3aeaa3aebc99fb6aU, 0x3b83fc123ba15088U, 0xbd66f91f3d215088U, 0x3d24fb16bd50f9c7U,
  0x3ba15088bbaffac2U, 0xbd584ee43cd84ee4U, 0x3ccd4f38bc5bf973U, 0xbca15088bc19fb6aU,
  0xbcd0f9c7bba15088U, 0x3d28a5a5bd3ea4fdU, 0x3d10d1053ce6f91fU, 0x3b83fc12U,
  0x3cd0f9c73cdbf973U, 0x3a6aa3aebd0efbbeU, 0x3c87a6a13c215088U, 0x3d147b943cb3a551U,
  0xbc9da5f9bc794de9U, 0x3aeaa3aebc8efbbeU, 0xbcc9a4aabd0226cbU, 0xbaeaa3aebd45fa1bU,
  0x3aeaa3ae3c99fb6aU, 0xbc794de9bbeaa3aeU, 0xbcdbf9733c0b512fU, 0x3c9650db3c8efbbeU,
  0x3c92a64dbcd4a456U, 0x3ba150883ce6f91fU, 0x3c03fc12bbdbf973U, 0xbc8efbbebd1da5f9U,
  0x3cbea4fdbd4424d3U, 0x3cf5a35abcd4a456U, 0xbd3ea4fdbc99fb6aU, 0x3c28a5a5bc87a6a1U,
  0x3d12a64dbd24fb16U, 0xbc71f8cb3b6aa3aeU, 0xbd2a7aecbb2ffac2U, 0xbd1f7b403caffac2U,
  0x3e08ad313de6a443U, 0x3e08ad313d99c2d7U, 0x3e1e08413de6a443U, 0x3d3bee233d2ad87dU,
  0x3e40338d3d80225eU, 0x3d2ad87d3e2ad87dU, 0x3e2ad87dbe66a443U, 0xbcaad87dbe19c2d7U,
  0x3de6a4433db36350U, 0x3e00225e3d913804U, 0x3e2f1de73dcd03caU, 0x3de6a4433d2ad87dU,
  0x3e558e9d3dde1970U, 0x3d6f2f163e0cf29bU, 0x3e40338dbe4478f6U, 0xbd08ad31be0cf29bU,
  0x3e4478f63d19c2d7U, 0x3db363503d4d03caU, 0x3e1138043e269314U, 0x3caad87d3ccd03caU,
  0x3dd58e9d3db36350U, 0x3d3bee233e558e9dU, 0x3e3bee23be2f1de7U, 0x3d08ad31be113804U,
  0x3e0467c73d80225eU, 0x3e1138043c08ad31U, 0x3e5e19703dc478f6U, 0x3ccd03ca3d08ad31U,
  0x3e1e08413dde1970U, 0x3da24daa3e2f1de7U, 0x3dcd03cabe00225eU, 0x3d4d03cabe2f1de7U,
  0x3e48be603da24daaU, 0x3da24daabcaad87dU, 0x3e59d4063e08ad31U, 0x3dbbee233c08ad31U,
  0x3e37a8ba3d5e1970U, 0x3d9138043e625ed9U, 0x3e0cf29bbe224daaU, 0xbd2ad87dbe37a8baU,
  0x3e0cf29b3d4d03caU, 0x3d913804bc88ad31U, 0x3e00225e3e19c2d7U, 0x3cef2f16bc4d03caU,
  0x3e2693143e0467c7U, 0x3d2ad87d3e4d03caU, 0x3dd58e9dbe48be60U, 0x3c08ad31be514933U,
  0x3e2f1de73df7b9e9U, 0x3dbbee23bc08ad31U, 0x3e3363503da24daaU, 0x3cef2f163caad87dU,
  0x3e3363503da24daaU, 0x3d3bee233e48be60U, 0x3e113804be73747fU, 0x3d08ad31be336350U,
  0x3e1e08413dd58e9dU, 0x3dde1970bc4d03caU, 0x3e3bee233df7b9e9U, 0x3d6f2f1600000000U,
  0x3e2693143def2f16U, 0x3daad87d3e625ed9U, 0x3e157d6ebdf7b9e9U, 0x3d08ad31be19c2d7U,
  0x3e4478f63ccd03caU, 0x3e08ad313caad87dU, 0x3df7b9e93e00225eU, 0x3db36350bc88ad31U,
  0x3e2ad87d3d3bee23U, 0x3c4d03ca3e1e0841U, 0x3dc478f6bdd58e9dU, 0xbccd03cabe0467c7U,
  0x3e0cf29b3d80225eU, 0x3e157d6e3c08ad31U, 0x3e3bee233e0cf29bU, 0x3db363503ccd03caU,
  0x3e1138043e113804U, 0x3dc478f63e2ad87dU, 0x3e157d6ebe19c2d7U, 0x3d4d03cabe00225eU,
  0x3dc478f63db36350U, 0x3dde19703caad87dU, 0x3df7b9e93dde1970U, 0x3d08ad313d2ad87dU,
  0x3e2f1de73e00225eU, 0x3caad87d3e2f1de7U, 0x3e336350be4d03caU, 0x3c4d03cabe336350U,
  0x3e2693143da24daaU, 0x3def2f16bcaad87dU, 0x3e19c2d73e224daaU, 0x3d08ad313c4d03caU,
  0x3e2f1de73e157d6eU, 0x3cef2f163e625ed9U, 0x3e2ad87dbe4478f6U, 0x3c4d03cabe269314U,
  0xbc88ad313d4d03caU, 0xbcef2f163e157d6eU, 0x3caad87dbb88ad31U, 0x3d6f2f163d3bee23U,
  0xbd19c2d7bd80225eU, 0x3d19c2d7bd4d03caU, 0xbccd03ca3d99c2d7U, 0x3c08ad313e8acfe6U,
  0xbd3bee23bccd03caU, 0x3ccd03ca3d99c2d7U, 0xbb88ad31bccd03caU, 0xbd88ad313caad87dU,
  0xbd99c2d700000000U, 0xbd08ad31bd913804U, 0xbd9138043de6a443U, 0x3cef2f163e88ad31U,
  0xbd99c2d73c08ad31U, 0xbd4d03ca3def2f16U, 0xbcaad87d3ccd03caU, 0x3cef2f16bd19c2d7U,
  0xbd6f2f16bc08ad31U, 0xbdc478f6bdde1970U, 0xbd9138043e0467c7U, 0x3c08ad313e5e1970U,
  0xbc08ad313d19c2d7U, 0x3e157d6eU, 0xbcef2f16bd88ad31U, 0xbc08ad313ccd03caU,
  0xbd08ad31U, 0xbd19c2d7bdbbee23U, 0xbd4d03ca3d3bee23U, 0xbc4d03ca3e2f1de7U,
  0xbcaad87dbd4d03caU, 0x3c08ad313e1e0841U, 0xbcef2f16bb88ad31U, 0x3b88ad313d4d03caU,
  0xbc88ad31bb88ad31U, 0xbdef2f16be0467c7U, 0x3b88ad313dd58e9dU, 0xbc88ad313e824513U,
  0xbc88ad31bcaad87dU, 0xbd08ad313e08ad31U, 0xbccd03ca3caad87dU, 0xbc08ad313d08ad31U,
  0xbc4d03cabdbbee23U, 0xbd5e1970bd99c2d7U, 0xbdaad87d3d08ad31U, 0x3ccd03ca3e37a8baU,
  0xbc08ad31bc08ad31U, 0xbd9138043dde1970U, 0xbc88ad31bd6f2f16U, 0xbc4d03cabc88ad31U,
  0xbdbbee23bc08ad31U, 0xbdbbee23bdaad87dU, 0xbdb363503dde1970U, 0x3ccd03ca3e80225eU,
  0x3cef2f16U, 0xbcaad87d3e2f1de7U, 0xbd88ad31bd80225eU, 0xbd08ad31bd2ad87dU,
  0x3c88ad3100000000U, 0xbde6a443bdf7b9e9U, 0x3dcd03caU, 0xbd4d03ca3e77b9e9U,
  0xbb88ad313c4d03caU, 0x3cef2f163e2ad87dU, 0xbd08ad31bd08ad31U, 0x3caad87d3c08ad31U,
  0xbd913804bcef2f16U, 0xbdcd03cabe0467c7U, 0xbc4d03ca3e08ad31U, 0xbc4d03ca3e8cf29bU,
  0x3c4d03ca3c88ad31U, 0xbd19c2d73dc478f6U, 0xbd19c2d73c08ad31U, 0xbc08ad31bccd03caU,
  0xbccd03ca3c88ad31U, 0xbd99c2d7bdd58e9dU, 0x3c88ad313da24daaU, 0xbd2ad87d3e3bee23U,
  0xbcaad87d3c4d03caU, 0xbcef2f163d913804U, 0xbd913804bd4d03caU, 0xbd19c2d700000000U,
  0x3b88ad31bd88ad31U, 0xbdb36350bd88ad31U, 0xbd5e19703dcd03caU, 0xbd19c2d73e73747fU,
  0xbd99c2d73c4d03caU, 0xbcef2f163dbbee23U, 0xbd2ad87d00000000U, 0xbd3bee23bd2ad87dU,
  0xbd6f2f163c4d03caU, 0xbdc478f6bd6f2f16U, 0xbd6f2f163dc478f6U, 0xbb88ad313e77b9e9U,
  0x3df7b9e93dc478f6U, 0x3daad87d3e2f1de7U, 0x3db363503cef2f16U, 0x3e0467c73c4d03caU,
  0x3b88ad313d88ad31U, 0x3e3bee233d08ad31U, 0x3d80225ebdaad87dU, 0x3d2ad87d3e37a8baU,
  0x3db363503d2ad87dU, 0x3dcd03ca3e00225eU, 0x3caad87d3d19c2d7U, 0x3d5e1970bd2ad87dU,
  0x3d9138043d88ad31U, 0x3e1138043c4d03caU, 0x3d4d03cabd4d03caU, 0xbcef2f163d88ad31U,
  0x3d2ad87d3c4d03caU, 0x3d88ad313e0cf29bU, 0x3dcd03ca3d913804U, 0x3d5e1970bd4d03caU,
  0x3cef2f163c08ad31U, 0x3d2ad87d3d4d03caU, 0x3d5e1970bdc478f6U, 0x3d2ad87d3def2f16U,
  0x3da24daa3ccd03caU, 0x3dbbee233e0467c7U, 0x3d08ad313b88ad31U, 0x3d4d03cabd08ad31U,
  0x3da24daa3d88ad31U, 0x3d08ad313caad87dU, 0x3d80225ebdaad87dU, 0xbc4d03ca3d08ad31U,
  0x3dbbee233d88ad31U, 0x3b88ad313e224daaU, 0x3d4d03caU, 0x3c08ad313c4d03caU,
  0x3cef2f163d99c2d7U, 0x3d91380400000000U, 0xbcef2f16bd99c2d7U, 0xbc4d03ca3dcd03caU,
  0x3d4d03ca3d19c2d7U, 0x3c4d03ca3e08ad31U, 0x3c88ad313caad87dU, 0x3c08ad313ccd03caU,
  0x3c88ad313d4d03caU, 0x3d99c2d7bb88ad31U, 0x3d4d03cabcaad87dU, 0x3cef2f163db36350U,
  0x3d6f2f163d88ad31U, 0x3caad87d3dcd03caU, 0x3d19c2d73d2ad87dU, 0x3d88ad31bc4d03caU,
  0x3d3bee233c4d03caU, 0x3d88ad31bc08ad31U, 0x3d19c2d7bd19c2d7U, 0xbb88ad313daad87dU,
  0x3c88ad313ccd03caU, 0x3e40338dU, 0x3ccd03ca3d88ad31U, 0xbd3bee233c88ad31U,
  0x3d08ad313daad87dU, 0x3d19c2d7bd5e1970U, 0x3d3bee23bd2ad87dU, 0xbc08ad313dde1970U,
  0xbb88ad313d2ad87dU, 0x3de6a4433de6a443U, 0x3d19c2d73d19c2d7U, 0x3d08ad31bcef2f16U,
  0x3dd58e9dbc08ad31U, 0x3c08ad31bd08ad31U, 0x3d80225ebd913804U, 0x3b88ad313d6f2f16U,
  0x3d4d03ca3d3bee23U, 0x3dd58e9d3dcd03caU, 0x3d4d03ca00000000U, 0x3dc478f6bd3bee23U,
  0x3df7b9e93d99c2d7U, 0x3c08ad31bb88ad31U, 0x3dc478f6bccd03caU, 0x3caad87d3d913804U,
  0x3da24daa3c08ad31U, 0x3c08ad313e37a8baU, 0x3d08ad313daad87dU, 0xbb88ad313c88ad31U,
  0x3dcd03ca3dd58e9dU, 0x3dcd03cabd3bee23U, 0x3c4d03ca00000000U, 0xbd2ad87d3dcd03caU,
  0x3d3bee233caad87dU, 0x3d2ad87d3e0cf29bU, 0x3d08ad313daad87dU, 0x3caad87dbc08ad31U,
  0x3de6a4433d6f2f16U, 0x3dbbee23bd913804U, 0xbc4d03cabdb36350U, 0x3c4d03ca3dbbee23U,
  0x3e224daa3e73747fU, 0x3d88ad313e4d03caU, 0x3d6f2f163dc478f6U, 0x3e2f1de73cef2f16U,
  0x3caad87d3e157d6eU, 0x3e7bff523e00225eU, 0x3daad87dbda24daaU, 0x3c88ad313d5e1970U,
  0x3db363503e157d6eU, 0x3da24daa3e73747fU, 0x3daad87d3d3bee23U, 0x3e19c2d73d2ad87dU,
  0x3e00225e3d99c2d7U, 0x3e2ad87d3caad87dU, 0x3d19c2d7bd88ad31U, 0xbccd03ca3d4d03caU,
  0x3d80225e3da24daaU, 0x3caad87d3e7bff52U, 0x3b88ad31bb88ad31U, 0x3da24daa3d4d03caU,
  0x3dbbee233d913804U, 0x3e1e08413d19c2d7U, 0x3d88ad31bd4d03caU, 0x3c88ad313e0467c7U,
  0x3daad87d3dc478f6U, 0x3d19c2d73e625ed9U, 0x3d9138043c4d03caU, 0x3dc478f6bd3bee23U,
  0x3dbbee233d4d03caU, 0x3e4478f63b88ad31U, 0xbd2ad87dU, 0x3d19c2d73dc478f6U,
  0x3e00225e3e269314U, 0x3d5e19703e157d6eU, 0x3ccd03ca3c4d03caU, 0x3d2ad87d3c08ad31U,
  0x3d4d03ca3ccd03caU, 0x3e913804bd2ad87dU, 0xbd80225eU, 0xbccd03ca3de6a443U,
  0x3dbbee233def2f16U, 0x3d19c2d73e224daaU, 0x3da24daa3d99c2d7U, 0x3e00225e3c4d03caU,
  0x3daad87d3ccd03caU, 0x3e66a443bccd03caU, 0x3b88ad31bd88ad31U, 0x3b88ad313d99c2d7U,
  0x3d4d03ca3dde1970U, 0x3d88ad313e5e1970U, 0x3d19c2d73d08ad31U, 0x3d08ad313d08ad31U,
  0x3da24daa3cef2f16U, 0x3e2693143c88ad31U, 0x3c4d03cabdd58e9dU, 0x3d4d03ca3db36350U,
  0x3dcd03ca3dbbee23U, 0x3d3bee233e514933U, 0x3daad87d3c88ad31U, 0x3de6a443bc88ad31U,
  0x3d6f2f163ccd03caU, 0x3e8467c73d08ad31U, 0x3d5e1970bc88ad31U, 0xbcaad87d3de6a443U,
  0x3e08ad313e269314U, 0x3d19c2d73e80225eU, 0x3caad87d3d913804U, 0x3dc478f6bd3bee23U,
  0x3d99c2d73b88ad31U, 0x3e6ae9acbcef2f16U, 0x3daad87dbc88ad31U, 0x3cef2f163e00225eU,
  0x3e2ad87d3e336350U, 0x3def2f163e4478f6U, 0x3d4d03ca3d99c2d7U, 0x3e19c2d73c08ad31U,
  0x3de6a4433caad87dU, 0x3e9138043d2ad87dU, 0x3cef2f16bd80225eU, 0xbc88ad313dd58e9dU,
  0x3e08ad313e37a8baU, 0x3c4d03ca3e4478f6U, 0x3d6f2f163ccd03caU, 0x3daad87dbd08ad31U,
  0x3d4d03ca3d99c2d7U, 0x3e935ab93d2ad87dU, 0x3ccd03cabc4d03caU, 0x3c08ad313daad87dU,
  0x3e157d6e3e40338dU, 0x3d99c2d73e8467c7U, 0x3d08ad313d3bee23U, 0x3e157d6ebd2ad87dU,
  0x3d80225e3e0467c7U, 0x3e558e9dbccd03caU, 0x3dd58e9dbdb36350U, 0x3d4d03ca3e1e0841U,
  0x3e97a0223e6f2f16U, 0x3e48be603df7b9e9U, 0x3e157d6e3e7bff52U, 0x3e19c2d7bc4d03caU,
  0x3e80225e3e4478f6U, 0x3e957d6e3e935ab9U, 0x3e558e9dbe5e1970U, 0xbd3bee23be19c2d7U,
  0x3e935ab93e80225eU, 0x3de6a4433d2ad87dU, 0x3d4d03ca3e6ae9acU, 0x3e1e0841bcaad87dU,
  0x3e6ae9ac3e157d6eU, 0x3ea24daa3e5e1970U, 0x3df7b9e9be2ad87dU, 0x3b88ad31bd913804U,
  0x3e625ed93e6ae9acU, 0x3e2ad87d3df7b9e9U, 0x3d08ad313e5e1970U, 0x3e1e08413b88ad31U,
  0x3e7bff523e558e9dU, 0x3e9be58c3e73747fU, 0x3dd58e9dbe336350U, 0x3b88ad3100000000U,
  0x3e40338d3e77b9e9U, 0x3dcd03ca3d3bee23U, 0x3caad87d3e868a7cU, 0x3e19c2d73d4d03caU,
  0x3e5149333e2ad87dU, 0x3e868a7c3e2ad87dU, 0x3e224daabe2ad87dU, 0x3d2ad87dbc4d03caU,
  0x3e7bff523e80225eU, 0x3daad87d3d99c2d7U, 0x3de6a4433e0cf29bU, 0x3e4478f6bc88ad31U,
  0x3e1e08413e08ad31U, 0x3ebe10d83e2ad87dU, 0x3e0cf29bbe558e9dU, 0xbc08ad31bd3bee23U,
  0x3e48be603e88ad31U, 0x3dde19703d5e1970U, 0x3de6a4433e2ad87dU, 0x3e269314bccd03caU,
  0x3e3bee233e19c2d7U, 0x3e9be58c3e19c2d7U, 0x3df7b9e9be113804U, 0x3ccd03cabdaad87dU,
  0x3e2ad87d3e4478f6U, 0x3e08ad313d913804U, 0x3ccd03ca3e00225eU, 0x3e00225e3d4d03caU,
  0x3e00225e3e113804U, 0x3e8467c73e2f1de7U, 0x3ccd03cabe157d6eU, 0xbd4d03cabd4d03caU,
  0x3e6ae9ac3e66a443U, 0x3e1138043dde1970U, 0x3d08ad313e19c2d7U, 0x3e0467c7bc88ad31U,
  0x3e2693143e0cf29bU, 0x3e6ae9ac3e19c2d7U, 0x3dbbee23bde6a443U, 0x3d4d03cabdaad87dU,
  0x3e88ad313e99c2d7U, 0x3dd58e9d3dde1970U, 0x3dbbee233e5e1970U, 0x3df7b9e93c08ad31U,
  0x3e80225e3de6a443U, 0x3e7bff523dbbee23U, 0x3def2f16be113804U, 0xbc08ad31bd80225eU,
  0x3e9138043e9be58cU, 0x3de6a4433d88ad31U, 0x3e0467c73e7bff52U, 0x3e0cf29b3c88ad31U,
  0x3e40338d3e59d406U, 0x3e957d6e3e4478f6U, 0x3db36350bde6a443U, 0xbcaad87dbd08ad31U,
  0x3e80225e3ea69314U, 0x3e0467c73d913804U, 0x3dc478f63e824513U, 0x3e2f1de7bccd03caU,
  0x3e4d03ca3e5e1970U, 0x3e625ed93e558e9dU, 0x3e514933be0467c7U, 0x3ccd03cabd80225eU,
  0x3e957d6e3e8acfe6U, 0x3e48be603e00225eU, 0x3e08ad313e6ae9acU, 0x3e08ad313ccd03caU,
  0x3e8467c73e336350U, 0x3e37a8ba3e625ed9U, 0x3e08ad31bdc478f6U, 0x3d2ad87dbdc478f6U,
  0x3e157d6e3daad87dU, 0x3dd58e9d3c4d03caU, 0x3df7b9e93e514933U, 0x3d913804bd08ad31U,
  0x3e4d03ca3e0467c7U, 0x3d4d03ca3e4d03caU, 0x3e6f2f16be113804U, 0xbb88ad31be0cf29bU,
  0x3e2f1de73e2f1de7U, 0x3dcd03ca3d19c2d7U, 0x3e19c2d73e4478f6U, 0x3da24daabcaad87dU,
  0x3e224daa3daad87dU, 0x3e1138043e5e1970U, 0x3e5e1970bdd58e9dU, 0xbc88ad31bdcd03caU,
  0x3e3363503e7bff52U, 0x3e2ad87d3d913804U, 0x3d99c2d73e66a443U, 0x3dcd03cabb88ad31U,
  0x3e3bee233daad87dU, 0x3e0cf29b3e5e1970U, 0x3e4d03cabe224daaU, 0xbd19c2d7bdc478f6U,
  0x3e4478f63e514933U, 0x3e08ad313d19c2d7U, 0x3db363503e8467c7U, 0x3da24daa3ccd03caU,
  0x3e5e19703d88ad31U, 0x3e1138043e8acfe6U, 0x3e868a7cbe19c2d7U, 0xbc4d03cabe157d6eU,
  0x3e4478f63e3bee23U, 0x3df7b9e9bc88ad31U, 0x3e224daa3e558e9dU, 0x3e0cf29bbc4d03caU,
  0x3e48be603e19c2d7U, 0x3e0cf29b3e558e9dU, 0x3e8467c7be157d6eU, 0x3b88ad31bdef2f16U,
  0x3e224daa3dde1970U, 0x3dde1970bccd03caU, 0x3e0467c73e113804U, 0x3d5e19703d19c2d7U,
  0x3e224daa3def2f16U, 0x3dbbee233e269314U, 0x3e66a443be40338dU, 0x3c08ad31be113804U,
  0x3d88ad313daad87dU, 0x3d3bee23bd88ad31U, 0x3e00225e3df7b9e9U, 0x3d913804bd19c2d7U,
  0x3de6a4433dbbee23U, 0x3d88ad313e5e1970U, 0x3e157d6ebde6a443U, 0x3d4d03cabe558e9dU,
  0x3e48be603e2f1de7U, 0x3e224daabd3bee23U, 0x3def2f163e37a8baU, 0x3d6f2f163caad87dU,
  0x3e6ae9ac3dc478f6U, 0x3d19c2d73e19c2d7U, 0x3e336350be1e0841U, 0x3c4d03cabe37a8baU,
  0x3e2ad87d3e08ad31U, 0x3e00225ebdc478f6U, 0x3e5e19703e8467c7U, 0x3d3bee233c08ad31U,
  0x3e7bff523d5e1970U, 0x3d9138043e5e1970U, 0x3e5e1970be157d6eU, 0xbd3bee23be4478f6U,
  0x3e157d6e3dbbee23U, 0x3dcd03cabd5e1970U, 0x3e37a8ba3e6f2f16U, 0x3daad87d3c88ad31U,
  0x3e224daa3d88ad31U, 0x3dc478f63e935ab9U, 0x3e625ed9be08ad31U, 0x3b88ad31be2f1de7U,
  0x3e3bee233dc478f6U, 0x3e2ad87d3c4d03caU, 0x3dde19703e514933U, 0x3def2f163d19c2d7U,
  0x3e6f2f163da24daaU, 0x3db363503e40338dU, 0x3e4478f6be4478f6U, 0x3d19c2d7bdf7b9e9U,
  0x3e2ad87d3e514933U, 0x3e157d6e3d80225eU, 0x3e224daa3e5e1970U, 0x3daad87d3caad87dU,
  0x3e6ae9ac3e113804U, 0x3dde19703e48be60U, 0x3e80225ebe00225eU, 0x3c4d03cabdbbee23U,
  0x3e558e9d3e224daaU, 0x3df7b9e93dd58e9dU, 0x3d99c2d7U, 0x3dde19703d19c2d7U,
  0x3e8245133d6f2f16U, 0x3e558e9d3df7b9e9U, 0x3dde1970bda24daaU, 0x3caad87d3d80225eU,
  0x3e08ad313def2f16U, 0x3df7b9e93d3bee23U, 0x3ccd03ca3e224daaU, 0x3e157d6e3c4d03caU,
  0x3e3363503dde1970U, 0x3def2f163de6a443U, 0x3e269314bd08ad31U, 0xbcaad87d00000000U,
  0x3e1138043df7b9e9U, 0x3d6f2f163cef2f16U, 0x3d80225e3e0467c7U, 0x3e19c2d73d2ad87dU,
  0x3dde19703e0cf29bU, 0x3e0cf29b3dc478f6U, 0x3dde1970bd913804U, 0xbc08ad313d3bee23U,
  0x3e48be603da24daaU, 0x3dd58e9d3d6f2f16U, 0x3d6f2f163e2f1de7U, 0x3db36350bcef2f16U,
  0x3e48be603dcd03caU, 0x3e4d03ca3e40338dU, 0x3e2f1de7bdb36350U, 0xbcef2f163c4d03caU,
  0x3e0467c73da24daaU, 0x3d3bee233ccd03caU, 0xbc08ad313d5e1970U, 0x3db363503ccd03caU,
  0x3e1e08413d19c2d7U, 0x3e0cf29b3dd58e9dU, 0x3dbbee23bde6a443U, 0xbccd03ca3d913804U,
  0x3e1e08413c88ad31U, 0x3dbbee233c88ad31U, 0x3d6f2f163d6f2f16U, 0x3d4d03cabd4d03caU,
  0x3dd58e9d3d80225eU, 0x3e00225e3d80225eU, 0x3e0467c7bd88ad31U, 0x3d2ad87d3c88ad31U,
  0x3dde1970bcef2f16U, 0x3d4d03ca3d19c2d7U, 0x3caad87d3dc478f6U, 0x3b88ad313d19c2d7U,
  0x3e00225e3d19c2d7U, 0x3d5e19703def2f16U, 0x3de6a443bdef2f16U, 0x3cef2f1600000000U,
  0x3dde19703dde1970U, 0x3dc478f6bc88ad31U, 0x3b88ad313de6a443U, 0x3d913804bb88ad31U,
  0x3e0cf29b3de6a443U, 0x3d88ad313d19c2d7U, 0x3da24daabde6a443U, 0x3d19c2d73d4d03caU,
  0x3da24daa3dcd03caU, 0x3dde19703ccd03caU, 0xbc88ad313dcd03caU, 0x3e08ad31bd19c2d7U,
  0x3e1e08413d913804U, 0x3db363503da24daaU, 0x3def2f16be1e0841U, 0x3c88ad313d99c2d7U,
  0x3d80225e3d19c2d7U, 0x3d5e19703d3bee23U, 0xbcaad87d3def2f16U, 0x3d4d03ca3d4d03caU,
  0x3dcd03ca3de6a443U, 0x3e08ad313d99c2d7U, 0x3df7b9e9be0467c7U, 0xbd3bee233d6f2f16U,
  0x3e1e08413e08ad31U, 0x3db363503d3bee23U, 0xbb88ad313dbbee23U, 0x3dc478f63d3bee23U,
  0x3da24daa3dcd03caU, 0x3d9138043db36350U, 0x3d5e1970bdaad87dU, 0x3c88ad313ccd03caU,
  0x3e37a8ba3e0cf29bU, 0x3dde19703d80225eU, 0xbcaad87d3d2ad87dU, 0x3dde19703d3bee23U,
  0x3e558e9d3dc478f6U, 0x3d9138043dde1970U, 0x3d88ad31bd2ad87dU, 0xbb88ad31U,
  0x3e00225e3ea69314U, 0x3d80225ebd4d03caU, 0xbe00225e3e2f1de7U, 0x3daad87d3c4d03caU,
  0x3df7b9e93daad87dU, 0x3eb586053d6f2f16U, 0x3da24daabd99c2d7U, 0x3ccd03cabd80225eU,
  0x3e1138043ea24daaU, 0x3cef2f16bd88ad31U, 0xbdb363503d3bee23U, 0x3dd58e9d3c88ad31U,
  0x3d80225e3db36350U, 0x3e73747f3daad87dU, 0x3b88ad31bdc478f6U, 0xbccd03ca3c4d03caU,
  0x3d99c2d73e5e1970U, 0x3d6f2f16bccd03caU, 0xbd4d03ca3d913804U, 0x3e157d6ebc88ad31U,
  0x3d4d03ca3dcd03caU, 0x3e48be603d913804U, 0xbb88ad31bdc478f6U, 0xbd3bee23bccd03caU,
  0x3e157d6e3e6ae9acU, 0x3da24daabd913804U, 0xbd5e19703e08ad31U, 0x3dd58e9d3d3bee23U,
  0x3daad87d3c88ad31U, 0x3e77b9e93cef2f16U, 0xbc88ad31bdc478f6U, 0x3caad87dbd3bee23U,
  0x3e0cf29b3e4478f6U, 0x3cef2f16bd99c2d7U, 0xbdc478f63d88ad31U, 0x3e157d6ebcef2f16U,
  0x3ccd03ca3dbbee23U, 0x3e8acfe63c4d03caU, 0x3d08ad31bd88ad31U, 0xbb88ad31bd19c2d7U,
  0x3e0467c73e77b9e9U, 0x3da24daabd08ad31U, 0xbe157d6e3d19c2d7U, 0x3dbbee23bd4d03caU,
  0x3da24daa3d99c2d7U, 0x3e37a8ba3d88ad31U, 0xbc4d03cabc88ad31U, 0x3caad87dbcaad87dU,
  0x3e00225e3e77b9e9U, 0x3c08ad31bb88ad31U, 0xbe269314bccd03caU, 0x3d88ad31bd2ad87dU,
  0x3cef2f163caad87dU, 0x3e4478f63d80225eU, 0xbd08ad31bd6f2f16U, 0x3d80225eU,
  0x3e1138043e97a022U, 0x3c08ad313d88ad31U, 0xbe157d6e3dbbee23U, 0x3d2ad87dbd2ad87dU,
  0x3d19c2d73c88ad31U, 0x3e08ad31bc08ad31U, 0xbb88ad31bdb36350U, 0x3c08ad313c4d03caU,
  0x3d6f2f163ea24daaU, 0x3d5e1970bccd03caU, 0xbe1138043d80225eU, 0x3daad87dbd4d03caU,
  0x3d6f2f163c4d03caU, 0x3e6f2f163d5e1970U, 0x3d4d03cabd99c2d7U, 0x3c4d03ca3d19c2d7U,
  0x3dd58e9d3eb9cb6fU, 0x3ccd03cabc88ad31U, 0xbd5e19703daad87dU, 0x3dd58e9d3ccd03caU,
  0x3c08ad313dd58e9dU, 0x3e88ad313cef2f16U, 0x3daad87dbd19c2d7U, 0xbd2ad87dU,
  0x3e1e08413e913804U, 0x3d19c2d7bcaad87dU, 0x3b88ad313caad87dU, 0x3e00225ebc88ad31U,
  0x3dcd03ca3cef2f16U, 0x3e224daabb88ad31U, 0x3ccd03cabdef2f16U, 0xbd08ad31bd6f2f16U,
  0x3e0467c73e6f2f16U, 0x3def2f16bd2ad87dU, 0x3c08ad313db36350U, 0x3d88ad31bd3bee23U,
  0x3db363503c88ad31U, 0x3e59d4063c08ad31U, 0xbd4d03caU, 0x3c08ad31bdcd03caU,
  0x3db363503e8f154fU, 0x3d19c2d7bec69babU, 0x3e3bee233e2ad87dU, 0x3e0467c73d4d03caU,
  0x3d80225e3d4d03caU, 0x3def2f163e00225eU, 0x3dc478f6be558e9dU, 0xbd19c2d7be935ab9U,
  0x3def2f163e514933U, 0x3caad87dbeaad87dU, 0x3dcd03ca3de6a443U, 0x3dde1970bc88ad31U,
  0x3da24daa3d88ad31U, 0x3e0467c73d4d03caU, 0x3e1e0841be37a8baU, 0xbcef2f16be9be58cU,
  0x3e157d6e3e6ae9acU, 0x3cef2f16beaad87dU, 0x3e157d6e3e2f1de7U, 0x3da24daa3caad87dU,
  0x3daad87d3d2ad87dU, 0x3e1138043def2f16U, 0x3e08ad31be40338dU, 0x3d08ad31be88ad31U,
  0x3e1138043e8467c7U, 0x3d3bee23bec478f6U, 0x3e3363503e113804U, 0x3dde19703caad87dU,
  0x3d5e19703d80225eU, 0x3e1138043d3bee23U, 0x3e19c2d7be6ae9acU, 0x3c08ad31be99c2d7U,
  0x3dd58e9d3e224daaU, 0x3d2ad87dbeb9cb6fU, 0x3e1138043e0cf29bU, 0x3dc478f6bd08ad31U,
  0x3da24daa3d80225eU, 0x3dc478f63dbbee23U, 0x3dcd03cabe157d6eU, 0x3d08ad31be8cf29bU,
  0x3cef2f163e1e0841U, 0x3daad87dbe80225eU, 0x3df7b9e93e0cf29bU, 0x3d80225ebc08ad31U,
  0x3d08ad313c08ad31U, 0x3da24daa3dbbee23U, 0x3df7b9e9be2ad87dU, 0x3ccd03cabe6ae9acU,
  0x3d80225e3e4478f6U, 0x3caad87dbe73747fU, 0x3d9138043e0467c7U, 0x3da24daabc08ad31U,
  0x3dde19703dd58e9dU, 0x3e40338d3d5e1970U, 0x3daad87dbe2f1de7U, 0xbc88ad31be88ad31U,
  0x3d5e19703e625ed9U, 0x3d08ad31be99c2d7U, 0x3dcd03ca3dbbee23U, 0x3dcd03ca3d19c2d7U,
  0x3d88ad313d5e1970U, 0x3d88ad313d5e1970U, 0x3dc478f6be1e0841U, 0x3d19c2d7be4478f6U,
  0x3d88ad313eb36350U, 0x3db36350be88ad31U, 0x3e3bee233def2f16U, 0x3d88ad31bc88ad31U,
  0x3ccd03ca3d08ad31U, 0x3e08ad313dc478f6U, 0x3de6a443be224daaU, 0xbd4d03cabe88ad31U,
  0x3cef2f163e8acfe6U, 0x3db36350be97a022U, 0x3e224daa3daad87dU, 0x3d5e1970bd19c2d7U,
  0x3caad87d3d19c2d7U, 0x3de6a4433da24daaU, 0x3e08ad31be157d6eU, 0xbd08ad31bea8b5c8U,
  0x3d08ad313e224daaU, 0x3d19c2d7bec8be60U, 0x3d99c2d73def2f16U, 0x3d99c2d7bb88ad31U,
  0x3db363503cef2f16U, 0x3d99c2d73d08ad31U, 0x3def2f16be3bee23U, 0xbd4d03cabeb1409cU,
  0x3d2ad87d3e3bee23U, 0x3d2ad87dbebbee23U, 0x3e00225e3d5e1970U, 0x3d80225e3ccd03caU,
  0x3de6a4433d5e1970U, 0x3b88ad313ccd03caU, 0x3d6f2f16be40338dU, 0x3d2ad87dbea4705fU,
  0x3def2f16bdbbee23U, 0x3dcd03cabeef2f16U, 0x3e48be603dde1970U, 0x3caad87d3ccd03caU,
  0x3dc478f63c88ad31U, 0x3d3bee233e1e0841U, 0x3e2f1de7be97a022U, 0xbd2ad87dbebe10d8U,
  0x3d3bee23bccd03caU, 0x3d3bee23bf079bd7U, 0x3e5149333dde1970U, 0x3caad87dbc4d03caU,
  0x3dde19703c08ad31U, 0xbc4d03ca3d6f2f16U, 0x3e00225ebe99c2d7U, 0xbc4d03cabec0338dU,
  0x3da24daabd88ad31U, 0x3d80225ebf0133b8U, 0x3e2693143de6a443U, 0x3d99c2d73ccd03caU,
  0x3e00225e3da24daaU, 0x3d9138043d2ad87dU, 0x3db36350be8467c7U, 0x3c08ad31bec0338dU,
  0x3de6a443bc08ad31U, 0x3caad87dbed14933U, 0x3e0467c73d4d03caU, 0x3d5e1970bd3bee23U,
  0x3da24daa3da24daaU, 0x3da24daa3dd58e9dU, 0x3def2f16be7bff52U, 0x3d08ad31be9e0841U,
  0x3da24daa00000000U, 0x3caad87dbedbf6bbU, 0x3e2693143d6f2f16U, 0x3c4d03cabd19c2d7U,
  0x3dcd03ca3caad87dU, 0x3e157d6e3e08ad31U, 0x3e19c2d7be88ad31U, 0x3d3bee23be80225eU,
  0x3def2f16bcef2f16U, 0x3d80225ebec25642U, 0x3e1138043d88ad31U, 0x3dc478f63ccd03caU,
  0x3de6a4433d99c2d7U, 0x3d99c2d73d3bee23U, 0x3e113804be48be60U, 0x3d08ad31be4478f6U,
  0x3e00225e3d08ad31U, 0x3b88ad31becd03caU, 0x3e1138043dbbee23U, 0x3d3bee2300000000U,
  0x3df7b9e93dbbee23U, 0x3dde19703d2ad87dU, 0x3d19c2d7be37a8baU, 0x3caad87dbe6ae9acU,
  0x3de6a4433cef2f16U, 0x3d4d03cabec25642U, 0x3e4d03ca3d913804U, 0x3d6f2f16bccd03caU,
  0x3d88ad313d99c2d7U, 0x3dd58e9d3dc478f6U, 0x3e00225ebe37a8baU, 0x3d4d03cabe625ed9U,
  0x3db363503d99c2d7U, 0x3c88ad31becae115U, 0x3e8acfe63dc478f6U, 0x3d99c2d7bc08ad31U,
  0x3e0467c7bc08ad31U, 0x3d3bee233d3bee23U, 0x3da24daabe824513U, 0x3c08ad31be9e0841U,
  0x3dde1970bc4d03caU, 0xbb88ad31befbff52U, 0x3e7bff523dde1970U, 0x3d5e1970bcef2f16U,
  0x3d5e19703caad87dU, 0x3c08ad313d3bee23U, 0x3daad87dbe88ad31U, 0xbd08ad31beb7a8baU,
  0x3d2ad87dbde6a443U, 0x3d80225ebf0133b8U, 0x3e59d406bb88ad31U, 0x3d5e19703d19c2d7U,
  0x3d3bee233d08ad31U, 0x3d08ad313d6f2f16U, 0x3d19c2d7be8acfe6U, 0xbccd03cabec69babU,
  0x3caad87dbe224daaU, 0x3d08ad31bf0133b8U, 0x3e224daa3da24daaU, 0xbc4d03cabcaad87dU,
  0x3d2ad87d3caad87dU, 0xbc08ad313d5e1970U, 0x3dc478f6be6ae9acU, 0xbd19c2d7becd03caU,
  0x3cef2f16be0cf29bU, 0x3d913804be957d6eU, 0xbe5149333d08ad31U, 0x3d6f2f16bd3bee23U,
  0x3d4d03ca00000000U, 0x3d88ad313c4d03caU, 0x3d80225ebe224daaU, 0x3caad87dbe224daaU,
  0x3c88ad31bdb36350U, 0x3ccd03cabe88ad31U, 0xbe0cf29b3cef2f16U, 0x3c88ad31bccd03caU,
  0x3de6a4433d4d03caU, 0x3dc478f63cef2f16U, 0x3d6f2f16be625ed9U, 0x3caad87dbe3bee23U,
  0x3d99c2d73b88ad31U, 0x3d80225ebe73747fU, 0xbdb363503d80225eU, 0xbb88ad313c4d03caU,
  0x3d08ad313d4d03caU, 0x3db36350bcaad87dU, 0x3d5e1970be1e0841U, 0x3d19c2d7be3bee23U,
  0x3daad87dbcaad87dU, 0x3d5e1970be558e9dU, 0xbe2f1de7bc08ad31U, 0x3d08ad313d08ad31U,
  0x3da24daa3ccd03caU, 0x3e0467c73d5e1970U, 0xbb88ad31be2ad87dU, 0xbb88ad31be224daaU,
  0x3d19c2d73c4d03caU, 0x3c88ad31be514933U, 0xbdde19703c88ad31U, 0x3d19c2d7bd19c2d7U,
  0x3df7b9e93ccd03caU, 0x3daad87dbc88ad31U, 0x3caad87dbe6ae9acU, 0x3ccd03cabd19c2d7U,
  0x3d9138043d88ad31U, 0xbc08ad31be0cf29bU, 0xbe1e08413d80225eU, 0x3dcd03ca3c4d03caU,
  0x3dbbee233d88ad31U, 0x3e2f1de73cef2f16U, 0x3d19c2d7be3bee23U, 0xbc08ad31bd913804U,
  0x3d3bee233d80225eU, 0x3d913804be4478f6U, 0xbd9138043db36350U, 0x3d913804bd19c2d7U,
  0x3db363503d4d03caU, 0x3e0467c73dd58e9dU, 0x3b88ad31be2f1de7U, 0x3d08ad31bdef2f16U,
  0x3d2ad87d3d3bee23U, 0x3d80225ebe8467c7U, 0xbe08ad313d6f2f16U, 0x3c08ad31bd08ad31U,
  0x3dcd03ca3cef2f16U, 0x3dc478f63ccd03caU, 0x3ccd03cabe37a8baU, 0x3c4d03cabe157d6eU,
  0x3d99c2d700000000U, 0xbc88ad31be8467c7U, 0xbe0cf29bbc4d03caU, 0x3ccd03cabc88ad31U,
  0x3dd58e9d3daad87dU, 0xbc88ad313d99c2d7U, 0x3d5e1970be2f1de7U, 0xbd19c2d7be00225eU,
  0x3d4d03cabd08ad31U, 0xbe558e9dU, 0xbd88ad313d19c2d7U, 0x3d4d03ca3ccd03caU,
  0x3d2ad87d3d08ad31U, 0x3c08ad313d6f2f16U, 0xbe3bee23U, 0xbd3bee23be37a8baU,
  0x3d4d03cabda24daaU, 0xbb88ad31be558e9dU, 0xbdf7b9e9bd6f2f16U, 0x3d19c2d7bd19c2d7U,
  0x3d08ad313d5e1970U, 0x3e224daa3d4d03caU, 0x3c88ad31be4478f6U, 0x3d3bee23be157d6eU,
  0xbb88ad31bdd58e9dU, 0x3caad87dbe99c2d7U, 0xbe157d6e00000000U, 0x3cef2f163c88ad31U,
  0x3d19c2d73c08ad31U, 0x3d4d03ca3d2ad87dU, 0x3b88ad31be80225eU, 0xbd19c2d7be157d6eU,
  0x3d3bee23bb88ad31U, 0x3da24daabe625ed9U, 0xbe59d4063dcd03caU, 0x3ccd03ca3d4d03caU,
  0x3ccd03ca3d08ad31U, 0x3d88ad313d5e1970U, 0x3d08ad31bdc478f6U, 0x3ccd03cabdc478f6U,
  0x3ccd03ca3e157d6eU, 0x3d19c2d7be514933U, 0xbe00225e3dbbee23U, 0x3ccd03cabb88ad31U,
  0x3caad87dbb88ad31U, 0x3e0467c73d19c2d7U, 0x3b88ad31be0cf29bU, 0xbcef2f16be00225eU,
  0x3dbbee233db36350U, 0x3da24daabe1e0841U, 0xbd99c2d73def2f16U, 0x3caad87dbcef2f16U,
  0x3d19c2d73d2ad87dU, 0x3df7b9e9bc08ad31U, 0x3d4d03cabe269314U, 0xbd08ad31bdcd03caU,
  0x3d9138043dcd03caU, 0x3d88ad31bdf7b9e9U, 0xbdf7b9e93d3bee23U, 0x3dbbee233c08ad31U,
  0x3e00225e3d6f2f16U, 0x3e08ad313da24daaU, 0x3dbbee23be113804U, 0x3c88ad31bdef2f16U,
  0x3caad87d3e0cf29bU, 0x3daad87dbdc478f6U, 0xbde6a4433d88ad31U, 0x3dde1970bc4d03caU,
  0x3e08ad31bc88ad31U, 0x3d88ad313db36350U, 0x3d6f2f16be4d03caU, 0xbd2ad87dbdbbee23U,
  0x3cef2f163e157d6eU, 0xbe5e1970U, 0x3c4d03ca3daad87dU, 0x3dd58e9dbcaad87dU,
  0x3dc478f63da24daaU, 0x3dd58e9d3d5e1970U, 0x3d2ad87dbe224daaU, 0x3d08ad31be2ad87dU,
  0x3dc478f63d88ad31U, 0xbe66a443U, 0xbd80225e3d19c2d7U, 0x3db363503d2ad87dU,
  0x3d88ad313d913804U, 0x3e00225e3c4d03caU, 0x3d4d03cabe19c2d7U, 0xbd3bee23be224daaU,
  0x3d5e19703d88ad31U, 0x3cef2f16be40338dU, 0xbdb363503d88ad31U, 0x3cef2f163c88ad31U,
  0x3db363503d6f2f16U, 0x3df7b9e93d88ad31U, 0x3d08ad31be8467c7U, 0x3c08ad31be7bff52U,
  0x3da24daa3d5e1970U, 0x3d80225ebe7bff52U, 0xbdb363503d88ad31U, 0xbd2ad87dU,
  0x3d08ad31bb88ad31U, 0x3d3bee233d4d03caU, 0x3ccd03cabe37a8baU, 0xbd3bee23be19c2d7U,
  0x3d2ad87d3daad87dU, 0x3d08ad31be0cf29bU, 0xbe3363503d5e1970U, 0x3c88ad313d3bee23U,
  0x3d3bee233d6f2f16U, 0x3d99c2d73da24daaU, 0x3d2ad87dbe269314U, 0xbc4d03cabe4478f6U,
  0x3d2ad87d3daad87dU, 0x3d19c2d7be37a8baU, 0xbe4478f63d08ad31U, 0x3d19c2d73c08ad31U,
  0x3d2ad87d3d5e1970U, 0x3e19c2d7bc08ad31U, 0x3c08ad31be08ad31U, 0xbc08ad31be336350U,
  0x3d80225e3da24daaU, 0x3cef2f16be113804U, 0xbe73747f3d5e1970U, 0x3d913804bcaad87dU,
  0x3d3bee233cef2f16U, 0x3db363503d4d03caU, 0xbd08ad31bdf7b9e9U, 0xbcef2f16be19c2d7U,
  0xbe1407dbbdaa3c3cU, 0xbd6cd95f3ccf3e33U, 0xbdc0709dbdc7d768U, 0xbe053a4500000000U,
  0xbe2a3c3cbe0186e0U, 0xbe105476be52f199U, 0xbd9407db3e4b8aceU, 0xbc6cd95f3e77f38fU,
  0xbdc7d768bdc7d768U, 0xbdf4402a3cb1a307U, 0xbd40709dbd9407dbU, 0xbd5e0bc9bb6cd95fU,
  0xbe3909d2be053a45U, 0xbe105476bdf4402aU, 0xbdecd95f3e56a4feU, 0x3cb1a3073e8ac75eU,
  0xbdc7d768bc6cd95fU, 0xbd4f3e333d22d571U, 0xbdcf3e33bd9b6ea6U, 0xbd9407dbbc9407dbU,
  0xbe0ca110bdde0bc9U, 0xbdb1a307be2a3c3cU, 0xbe0186e03e31a307U, 0xbd053a453e7ba6f5U,
  0xbe1f220cbd053a45U, 0xbdc0709d3d5e0bc9U, 0xbdfba6f5bd40709dU, 0xbd6cd95fbd1407dbU,
  0xbe47d768bda2d571U, 0xbd9407dbbe053a45U, 0xbe1407db3e35566dU, 0xbcecd95f3e7ba6f5U,
  0xbe1b6ea6bdb1a307U, 0xbdaa3c3c3d1407dbU, 0xbdc7d768bd5e0bc9U, 0xbde572943c6cd95fU,
  0xbe31a307bdecd95fU, 0xbd7ba6f5be1407dbU, 0xbd853a453e4b8aceU, 0xbd053a453e40709dU,
  0xbe2688d7bc31a307U, 0xbd5e0bc93d22d571U, 0xbd853a45bdfba6f5U, 0xbdaa3c3cbc6cd95fU,
  0xbe1b6ea6bdf4402aU, 0xbd853a45be0186e0U, 0xbe0186e03e4f3e33U, 0xbc6cd95f3e31a307U,
  0xbd9b6ea6bd31a307U, 0xbd9407dbbccf3e33U, 0xbe0186e0bdcf3e33U, 0xbd31a3073c6cd95fU,
  0xbe31a307bd4f3e33U, 0xbdb1a307be4f3e33U, 0xbe1b6ea63e3cbd38U, 0xbc9407db3e3cbd38U,
  0xbe0186e0bdb1a307U, 0xbd40709d3d8ca110U, 0xbdd6a4febdf4402aU, 0xbdc7d768bc6cd95fU,
  0xbdecd95fbdfba6f5U, 0xbe105476be31a307U, 0xbdde0bc93e5a5864U, 0xbb6cd95f3e2defa2U,
  0xbdb1a307bd1407dbU, 0xbd8ca1103d8ca110U, 0xbdc0709dbd4f3e33U, 0xbd1407dbbcb1a307U,
  0xbdcf3e33bd40709dU, 0xbd9b6ea6be35566dU, 0xbdfba6f53e3909d2U, 0x3d40709d3dcf3e33U,
  0xbdaa3c3cbcecd95fU, 0xbdc0709d3cb1a307U, 0xbd853a45bda2d571U, 0xbdc7d7683cb1a307U,
  0xbde57294bd9407dbU, 0xbe053a45be3cbd38U, 0xbd40709d3e5a5864U, 0xbd4f3e333e17bb41U,
  0xbdcf3e33bd4f3e33U, 0xbdb1a307bbecd95fU, 0xbd4f3e33bd1407dbU, 0xbcecd95f3b6cd95fU,
  0xbe105476bda2d571U, 0xbdfba6f5be0186e0U, 0xbd8ca1103e17bb41U, 0x3d1407db3ea688d7U,
  0xbdfba6f5bcb1a307U, 0xbdf4402a3d40709dU, 0xbde57294bde57294U, 0xbcb1a3073c31a307U,
  0xbe47d768bdcf3e33U, 0xbd9407dbbde57294U, 0xbd9407db3e7ba6f5U, 0x3c6cd95f3e7f5a5aU,
  0xbdc7d768bdc0709dU, 0xbd8ca110bd31a307U, 0x3cecd95fbd9b6ea6U, 0xbde572943cecd95fU,
  0xbda2d571bd22d571U, 0xbdf4402abc6cd95fU, 0xbd853a453dcf3e33U, 0x3cecd95f3d5e0bc9U,
  0xbccf3e33bd22d571U, 0xbc6cd95f3ccf3e33U, 0x3d853a45bd9407dbU, 0xbdc0709dbb6cd95fU,
  0xbdde0bc9bcecd95fU, 0xbcb1a307bd5e0bc9U, 0xbd853a453df4402aU, 0x3d053a45bc31a307U,
  0xbc9407dbbd22d571U, 0xbccf3e333becd95fU, 0xbcb1a307bd853a45U, 0xbd6cd95f3d40709dU,
  0xbd853a45bd7ba6f5U, 0xbd1407dbbd8ca110U, 0x3c31a3073becd95fU, 0x3ccf3e333d9b6ea6U,
  0xbcecd95fbdaa3c3cU, 0xbd40709dbd6cd95fU, 0x3d853a45bdaa3c3cU, 0xbd5e0bc9bbecd95fU,
  0xbd053a45bd053a45U, 0x3d053a45bd40709dU, 0x3c31a3073da2d571U, 0x3c6cd95fbd22d571U,
  0xbcb1a307bdd6a4feU, 0xbcb1a307bd40709dU, 0x3c31a307bc9407dbU, 0xbdaa3c3cbb6cd95fU,
  0xbd1407dbbd31a307U, 0x3becd95f3cecd95fU, 0x3c9407db3da2d571U, 0xbccf3e33bd40709dU,
  0xbbecd95fbdde0bc9U, 0xbd1407dbbd22d571U, 0x3d9b6ea6bd9b6ea6U, 0xbcb1a307bc9407dbU,
  0xbd8ca110bd31a307U, 0xbc6cd95f3cb1a307U, 0x3becd95f3d1407dbU, 0xbd1407db3d7ba6f5U,
  0xbd8ca110bccf3e33U, 0xbd6cd95fbd5e0bc9U, 0x3d31a307bdaa3c3cU, 0xbbecd95fbd22d571U,
  0xbd31a3073c6cd95fU, 0x3d853a453b6cd95fU, 0x3d7ba6f5U, 0x3d40709d3c9407dbU,
  0xbc9407dbbcecd95fU, 0xbc9407db3c9407dbU, 0x3d853a45bd853a45U, 0xbda2d571bc31a307U,
  0xbdb909d2bbecd95fU, 0xbd1407dbbbecd95fU, 0xbd1407db3dc7d768U, 0x3ccf3e33bdaa3c3cU,
  0xbd7ba6f5bda2d571U, 0xbcb1a3073c6cd95fU, 0x3d40709dbd22d571U, 0xbc9407db3b6cd95fU,
  0xbd4f3e3300000000U, 0x3c9407dbU, 0x3ccf3e33U, 0xbd053a45bcb1a307U,
  0xbd853a45bccf3e33U, 0xbd22d5713c9407dbU, 0x3c6cd95fbd053a45U, 0xbd22d5713d4f3e33U,
  0x3c31a307bd5e0bc9U, 0x3becd95f3b6cd95fU, 0xbd31a3073c6cd95fU, 0xbd22d5713d1407dbU,
  0xbc9407dbbbecd95fU, 0xbd053a453becd95fU, 0x3d7ba6f53cb1a307U, 0xbd5e0bc93d053a45U,
  0xbd4f3e333cb1a307U, 0x3c31a3073c31a307U, 0x3d31a3073c9407dbU, 0xbc9407db3ccf3e33U,
  0xbd5e0bc9bd6cd95fU, 0x3d22d571bc9407dbU, 0x3d7ba6f5bda2d571U, 0xbcecd95f3cb1a307U,
  0xbda2d5713becd95fU, 0x3d9407db3d4f3e33U, 0x3d22d5713d5e0bc9U, 0x3dc0709dU,
  0xbd5e0bc9bd053a45U, 0xbdc7d7683d40709dU, 0xbe08edabbdb1a307U, 0xbd7ba6f5bd053a45U,
  0xbc6cd95fbc9407dbU, 0xbccf3e333b6cd95fU, 0xbdaa3c3c3db909d2U, 0x3d053a45bc9407dbU,
  0xbd9b6ea6bd4f3e33U, 0xbd5e0bc93becd95fU, 0xbdecd95fbd31a307U, 0xbd7ba6f5bd4f3e33U,
  0xbd853a45bc31a307U, 0x3ccf3e333d22d571U, 0xbd853a453db909d2U, 0xbb6cd95fbb6cd95fU,
  0xbd7ba6f5bc31a307U, 0xbcecd95f3d9407dbU, 0xbcecd95fbd6cd95fU, 0xbc31a3073d40709dU,
  0xbc6cd95f3cecd95fU, 0x3c9407dbbcb1a307U, 0x3c31a3073d6cd95fU, 0xbbecd95fbc31a307U,
  0xbd6cd95f00000000U, 0xbc31a3073d6cd95fU, 0xbcb1a307bd7ba6f5U, 0xbc6cd95fbc31a307U,
  0xbd053a453b6cd95fU, 0x3cecd95f3d22d571U, 0xbc9407db3d1407dbU, 0x3c9407dbbd853a45U,
  0xbd22d5713ccf3e33U, 0xbd053a453d8ca110U, 0xbccf3e33bdb909d2U, 0xbd853a45bd22d571U,
  0xbd053a453d053a45U, 0x3d9407db3c6cd95fU, 0xbc6cd95f3dde0bc9U, 0xbcb1a307bd1407dbU,
  0xbcb1a3073becd95fU, 0xbc31a3073c9407dbU, 0xbc9407dbbcb1a307U, 0x3c9407db3becd95fU,
  0xbd31a307bd4f3e33U, 0x3d8ca110bd40709dU, 0xbd8ca1103db1a307U, 0xbd31a307bd22d571U,
  0xbd9407dbbd5e0bc9U, 0xbd22d571bc31a307U, 0xbd1407dbbcecd95fU, 0xbcb1a307bccf3e33U,
  0xbd8ca110bcecd95fU, 0x3d5e0bc9bcb1a307U, 0xbd5e0bc93d853a45U, 0xbd22d571bc9407dbU,
  0xbdc7d768bd31a307U, 0xbc6cd95f3d40709dU, 0xbdb1a307bd4f3e33U, 0xbd5e0bc93d40709dU,
  0xbe08edabbd40709dU, 0xbd22d5713ccf3e33U, 0xbdb1a3073da2d571U, 0xbc9407dbbcb1a307U,
  0x3c6cd95fbdc7d768U, 0xbdc0709dbbecd95fU, 0xbd7ba6f5be0186e0U, 0xbdc0709dbd1407dbU,
  0xbda2d571bc6cd95fU, 0x3d8ca110bdc7d768U, 0xbd7ba6f53e08edabU, 0x3d22d571bbecd95fU,
  0xbd1407dbbd31a307U, 0xbbecd95f3d22d571U, 0xbd8ca110bb6cd95fU, 0xbcecd95f3d31a307U,
  0x3cecd95f3b6cd95fU, 0x3d6cd95fbd1407dbU, 0xbd22d5713e1407dbU, 0xbd053a453b6cd95fU,
  0xbd053a453d22d571U, 0xbb6cd95f3d6cd95fU, 0xbcb1a3073cb1a307U, 0x3c9407db3d4f3e33U,
  0x3d5e0bc9bccf3e33U, 0x3d31a3073da2d571U, 0xbd053a453e2a3c3cU, 0x3cb1a3073ccf3e33U,
  0xbbecd95f3d5e0bc9U, 0xbda2d5713d31a307U, 0xbd5e0bc9bc31a307U, 0xbc31a3073d40709dU,
  0xbd5e0bc93c31a307U, 0x3d22d5713d5e0bc9U, 0x3cecd95f3dc0709dU, 0xbd40709dbd9b6ea6U,
  0xbde57294bdc7d768U, 0xbd9407dbbd053a45U, 0xbdcf3e33bd22d571U, 0xbe17bb41bc31a307U,
  0xbcb1a307bdfba6f5U, 0xbe2688d7bdaa3c3cU, 0xbe1054763dfba6f5U, 0xbd1407dbbd1407dbU,
  0xbd8ca110bd6cd95fU, 0x3c31a307bd1407dbU, 0xbd4f3e333c9407dbU, 0xbd1407db3becd95fU,
  0xbd7ba6f5bd6cd95fU, 0xbd40709dbccf3e33U, 0xbd5e0bc93da2d571U, 0x3c31a307bdaa3c3cU,
  0xbd1407dbbccf3e33U, 0xbd8ca110bdaa3c3cU, 0xbd853a453c9407dbU, 0x3c31a3073d31a307U,
  0xbdb909d23c31a307U, 0xbe0186e03cecd95fU, 0xbd053a453dc7d768U, 0x3d40709dbe22d571U,
  0xbdc0709dbd9b6ea6U, 0xbd9407dbbd22d571U, 0xbccf3e33bcecd95fU, 0xbdcf3e33bd1407dbU,
  0xbda2d57100000000U, 0xbe0186e03becd95fU, 0xbd31a3073dde0bc9U, 0xbe2a3c3cU,
  0xbdb1a307bdb909d2U, 0xbcecd95f3b6cd95fU, 0xbdc7d768bc6cd95fU, 0xbdb1a3073c6cd95fU,
  0xbd22d571U, 0xbdfba6f53c9407dbU, 0xbdc0709d3dc0709dU, 0xbb6cd95fbdf4402aU,
  0xbc6cd95fbc31a307U, 0xbc9407dbbd7ba6f5U, 0x3b6cd95fbbecd95fU, 0xbc6cd95fbd40709dU,
  0xbd853a45bda2d571U, 0xbdc7d7683d31a307U, 0xbc6cd95f3e17bb41U, 0x3d31a307bdf4402aU,
  0xbbecd95fbd4f3e33U, 0xbd4f3e33bd4f3e33U, 0xbd8ca110bcb1a307U, 0xbcb1a3073c31a307U,
  0xbd853a45bccf3e33U, 0xbe1f220c3cecd95fU, 0x3c31a3073de57294U, 0xbcecd95fbe105476U,
  0xbdecd95fbd31a307U, 0xbdecd95fbd4f3e33U, 0xbdcf3e33bd6cd95fU, 0xbcecd95f3b6cd95fU,
  0xbdd6a4febd4f3e33U, 0xbe1407db3c9407dbU, 0xbd22d5713daa3c3cU, 0xbdecd95fU,
  0xbc31a307bda2d571U, 0xbd8ca1103c9407dbU, 0xbd1407db3c31a307U, 0xbd6cd95f3b6cd95fU,
  0xbc31a30700000000U, 0xbe17bb41bcb1a307U, 0xbd40709d3de57294U, 0xbd31a307bdaa3c3cU,
  0xbdb909d23cecd95fU, 0x3d6cd95fbd5e0bc9U, 0xbd9b6ea63cb1a307U, 0xbc9407dbbcb1a307U,
  0x3ccf3e3300000000U, 0xbe053a45bc6cd95fU, 0xbda2d5713e1407dbU, 0x3c9407dbbe0ca110U,
  0x3cecd95fbc31a307U, 0x3d6cd95fbd40709dU, 0xbcecd95f3d22d571U, 0x3c31a3073d4f3e33U,
  0x3c31a3073c9407dbU, 0xbdd6a4fe3daa3c3cU, 0x3d6cd95f3e1407dbU, 0xbcb1a307bd8ca110U,
  0xbd9b6ea63cb1a307U, 0xbcb1a307bcecd95fU, 0x3d5e0bc93d9b6ea6U, 0x3becd95fbd31a307U,
  0xbccf3e33bd31a307U, 0xbde572943dcf3e33U, 0x3d6cd95f3dd6a4feU, 0xbd31a307bdb909d2U,
  0xbdfba6f5be2defa2U, 0xbd853a45bcecd95fU, 0xbde57294bd9407dbU, 0xbdc0709d3c9407dbU,
  0xbe22d571be053a45U, 0xbdecd95fbd7ba6f5U, 0xbdb909d23e2688d7U, 0x3b6cd95fbcb1a307U,
  0xbd31a307be08edabU, 0xbd9407dbbd9b6ea6U, 0xbd053a45be2defa2U, 0xbde572943c9407dbU,
  0xbdb909d2bdde0bc9U, 0xbe053a45bd7ba6f5U, 0xbd6cd95f3dd6a4feU, 0x3ccf3e33bdc0709dU,
  0xbdf4402abe08edabU, 0xbe053a45bdde0bc9U, 0xbc31a307bde57294U, 0xbd9b6ea63c31a307U,
  0xbe56a4febe47d768U, 0xbe2defa2bd4f3e33U, 0xbd5e0bc93e1f220cU, 0xbbecd95fbdcf3e33U,
  0xbdcf3e33be105476U, 0xbdc7d768bdb909d2U, 0xbdb909d2be4b8aceU, 0xbe2688d7bcecd95fU,
  0xbe31a307be2a3c3cU, 0xbdcf3e33bd1407dbU, 0xbe17bb413de57294U, 0xbb6cd95fbd8ca110U,
  0xbd9b6ea6be22d571U, 0xbd6cd95fbdc7d768U, 0xbdc7d768bdb909d2U, 0xbe0ca1103becd95fU,
  0xbd9b6ea6be52f199U, 0xbe2688d7bd7ba6f5U, 0xbd9b6ea63e2a3c3cU, 0x3d40709dbd053a45U,
  0xbe1b6ea6bdc0709dU, 0xbd7ba6f5bd1407dbU, 0xbd053a45bdb909d2U, 0xbd9b6ea6bc6cd95fU,
  0xbe1b6ea6be2defa2U, 0xbe6572943cecd95fU, 0xbd5e0bc93e0ca110U, 0x3c31a307bd5e0bc9U,
  0xbdfba6f5bdfba6f5U, 0xbdaa3c3cbd1407dbU, 0xbd40709dbdc7d768U, 0xbde57294bcecd95fU,
  0xbe053a45bdf4402aU, 0xbe1f220cbd5e0bc9U, 0xbd7ba6f53e0186e0U, 0x3c9407db3cb1a307U,
  0xbda2d571be657294U, 0xbe08edab3b6cd95fU, 0xbc6cd95fbdcf3e33U, 0xbdf4402a3d40709dU,
  0xbe56a4febe52f199U, 0xbe2defa2bde57294U, 0xbd31a3073dfba6f5U, 0xbd31a3073c31a307U,
  0xbdf4402abe105476U, 0xbcecd95fbda2d571U, 0xbd6cd95fbd9b6ea6U, 0xbe31a3073cb1a307U,
  0xbd9407dbbdfba6f5U, 0xbe053a45be08edabU, 0xbda2d5713d8ca110U, 0x3c6cd95fbd1407dbU,
  0xbd8ca110be08edabU, 0xbdaa3c3cbd6cd95fU, 0xbccf3e33be0186e0U, 0xbdc0709d3d053a45U,
  0xbd8ca110be2a3c3cU, 0xbe31a30700000000U, 0x3c9407db3e1b6ea6U, 0xbc31a3073becd95fU,
  0xbe0186e0be4f3e33U, 0xbd853a45bd053a45U, 0xbcb1a307bd053a45U, 0xbe08edabbc31a307U,
  0xbdfba6f5be35566dU, 0xbe2defa2bdc7d768U, 0xbd5e0bc93e053a45U, 0xbc31a307bc9407dbU,
  0xbe0ca110bdfba6f5U, 0xbdde0bc9bcb1a307U, 0x3b6cd95fbdcf3e33U, 0xbe08edabbd31a307U,
  0xbe5a5864be2688d7U, 0xbe61bf2fbd9b6ea6U, 0xbd8ca1103db1a307U, 0x3c6cd95fbccf3e33U,
  0xbe08edabbe1407dbU, 0xbde57294bdc7d768U, 0xbe657294bdb1a307U, 0xbd40709d3d22d571U,
  0xbe5a5864be35566dU, 0xbc31a307bdf4402aU, 0xbde572943d8ca110U, 0x3ccf3e33bd853a45U,
  0xbd9b6ea6bdf4402aU, 0xbe1f220cbd053a45U, 0xbe105476be0ca110U, 0xbdde0bc9bc9407dbU,
  0xbe1b6ea6be22d571U, 0xbe0ca110be1407dbU, 0xbe22d5713e17bb41U, 0xbc9407dbbcecd95fU,
  0xbe17bb41be053a45U, 0xbe0ca110bdaa3c3cU, 0xbe8ca110be2688d7U, 0xbda2d5713c31a307U,
  0xbe5a5864be442403U, 0xbe053a45be053a45U, 0xbe56a4fe3decd95fU, 0xbccf3e33bd053a45U,
  0xbe2688d7bdc0709dU, 0xbe56a4febd4f3e33U, 0xbe8ca110be47d768U, 0xbdaa3c3cbc6cd95fU,
  0xbe905476be3cbd38U, 0xbc31a307be17bb41U, 0xbe35566d3e0186e0U, 0xbd22d571bc31a307U,
  0xbe105476bda2d571U, 0xbe35566d3cecd95fU, 0xbe17bb41be2defa2U, 0xbe0ca110bd22d571U,
  0xbe56a4febdecd95fU, 0xbdfba6f5be836093U, 0xbe7ba6f53e40709dU, 0x3cb1a307bc6cd95fU,
  0xbdc7d768bdc0709dU, 0xbe1407db00000000U, 0xbde57294be1f220cU, 0xbe1407dbbbecd95fU,
  0xbe2defa2be35566dU, 0xbdf4402abe4f3e33U, 0xbe52f1993e17bb41U, 0x3d1407db3d5e0bc9U,
